{
  "vocab_size": 7500,
  "eos_token": "<|endoftext|>",
  "token_to_id": {
    "Ā": 0,
    "ā": 1,
    "Ă": 2,
    "ă": 3,
    "Ą": 4,
    "ą": 5,
    "Ć": 6,
    "ć": 7,
    "Ĉ": 8,
    "ĉ": 9,
    "Ċ": 10,
    "ċ": 11,
    "Č": 12,
    "č": 13,
    "Ď": 14,
    "ď": 15,
    "Đ": 16,
    "đ": 17,
    "Ē": 18,
    "ē": 19,
    "Ĕ": 20,
    "ĕ": 21,
    "Ė": 22,
    "ė": 23,
    "Ę": 24,
    "ę": 25,
    "Ě": 26,
    "ě": 27,
    "Ĝ": 28,
    "ĝ": 29,
    "Ğ": 30,
    "ğ": 31,
    "Ġ": 32,
    "!": 33,
    "\"": 34,
    "#": 35,
    "$": 36,
    "%": 37,
    "&": 38,
    "'": 39,
    "(": 40,
    ")": 41,
    "*": 42,
    "+": 43,
    ",": 44,
    "-": 45,
    ".": 46,
    "/": 47,
    "0": 48,
    "1": 49,
    "2": 50,
    "3": 51,
    "4": 52,
    "5": 53,
    "6": 54,
    "7": 55,
    "8": 56,
    "9": 57,
    ":": 58,
    ";": 59,
    "<": 60,
    "=": 61,
    ">": 62,
    "?": 63,
    "@": 64,
    "A": 65,
    "B": 66,
    "C": 67,
    "D": 68,
    "E": 69,
    "F": 70,
    "G": 71,
    "H": 72,
    "I": 73,
    "J": 74,
    "K": 75,
    "L": 76,
    "M": 77,
    "N": 78,
    "O": 79,
    "P": 80,
    "Q": 81,
    "R": 82,
    "S": 83,
    "T": 84,
    "U": 85,
    "V": 86,
    "W": 87,
    "X": 88,
    "Y": 89,
    "Z": 90,
    "[": 91,
    "\\": 92,
    "]": 93,
    "^": 94,
    "_": 95,
    "`": 96,
    "a": 97,
    "b": 98,
    "c": 99,
    "d": 100,
    "e": 101,
    "f": 102,
    "g": 103,
    "h": 104,
    "i": 105,
    "j": 106,
    "k": 107,
    "l": 108,
    "m": 109,
    "n": 110,
    "o": 111,
    "p": 112,
    "q": 113,
    "r": 114,
    "s": 115,
    "t": 116,
    "u": 117,
    "v": 118,
    "w": 119,
    "x": 120,
    "y": 121,
    "z": 122,
    "{": 123,
    "|": 124,
    "}": 125,
    "~": 126,
    "ġ": 127,
    "Ģ": 128,
    "ģ": 129,
    "Ĥ": 130,
    "ĥ": 131,
    "Ħ": 132,
    "ħ": 133,
    "Ĩ": 134,
    "ĩ": 135,
    "Ī": 136,
    "ī": 137,
    "Ĭ": 138,
    "ĭ": 139,
    "Į": 140,
    "į": 141,
    "İ": 142,
    "ı": 143,
    "Ĳ": 144,
    "ĳ": 145,
    "Ĵ": 146,
    "ĵ": 147,
    "Ķ": 148,
    "ķ": 149,
    "ĸ": 150,
    "Ĺ": 151,
    "ĺ": 152,
    "Ļ": 153,
    "ļ": 154,
    "Ľ": 155,
    "ľ": 156,
    "Ŀ": 157,
    "ŀ": 158,
    "Ł": 159,
    "ł": 160,
    "¡": 161,
    "¢": 162,
    "£": 163,
    "¤": 164,
    "¥": 165,
    "¦": 166,
    "§": 167,
    "¨": 168,
    "©": 169,
    "ª": 170,
    "«": 171,
    "¬": 172,
    "Ń": 173,
    "®": 174,
    "¯": 175,
    "°": 176,
    "±": 177,
    "²": 178,
    "³": 179,
    "´": 180,
    "µ": 181,
    "¶": 182,
    "·": 183,
    "¸": 184,
    "¹": 185,
    "º": 186,
    "»": 187,
    "¼": 188,
    "½": 189,
    "¾": 190,
    "¿": 191,
    "À": 192,
    "Á": 193,
    "Â": 194,
    "Ã": 195,
    "Ä": 196,
    "Å": 197,
    "Æ": 198,
    "Ç": 199,
    "È": 200,
    "É": 201,
    "Ê": 202,
    "Ë": 203,
    "Ì": 204,
    "Í": 205,
    "Î": 206,
    "Ï": 207,
    "Ð": 208,
    "Ñ": 209,
    "Ò": 210,
    "Ó": 211,
    "Ô": 212,
    "Õ": 213,
    "Ö": 214,
    "×": 215,
    "Ø": 216,
    "Ù": 217,
    "Ú": 218,
    "Û": 219,
    "Ü": 220,
    "Ý": 221,
    "Þ": 222,
    "ß": 223,
    "à": 224,
    "á": 225,
    "â": 226,
    "ã": 227,
    "ä": 228,
    "å": 229,
    "æ": 230,
    "ç": 231,
    "è": 232,
    "é": 233,
    "ê": 234,
    "ë": 235,
    "ì": 236,
    "í": 237,
    "î": 238,
    "ï": 239,
    "ð": 240,
    "ñ": 241,
    "ò": 242,
    "ó": 243,
    "ô": 244,
    "õ": 245,
    "ö": 246,
    "÷": 247,
    "ø": 248,
    "ù": 249,
    "ú": 250,
    "û": 251,
    "ü": 252,
    "ý": 253,
    "þ": 254,
    "ÿ": 255,
    "<|endoftext|>": 256,
    "ie": 257,
    "aĠ": 258,
    "ÅĤ": 259,
    ",Ġ": 260,
    "oĠ": 261,
    "iĠ": 262,
    "ÄĻ": 263,
    "st": 264,
    "Äħ": 265,
    "yĠ": 266,
    "ze": 267,
    "ni": 268,
    "ow": 269,
    "ch": 270,
    "nie": 271,
    "Å¼": 272,
    "Ġp": 273,
    "Ã³": 274,
    "ra": 275,
    "Ġw": 276,
    "cz": 277,
    "ÅĽ": 278,
    "eĠ": 279,
    ".Ġ": 280,
    "od": 281,
    "na": 282,
    "sz": 283,
    "Ġz": 284,
    "ro": 285,
    "ar": 286,
    "iÄĻ": 287,
    "aÅĤ": 288,
    "or": 289,
    "te": 290,
    "mĠ": 291,
    "dz": 292,
    "rze": 293,
    "âĢ": 294,
    "an": 295,
    "Ġs": 296,
    "Äĩ": 297,
    "je": 298,
    "li": 299,
    "ak": 300,
    "Ġd": 301,
    "rz": 302,
    "ych": 303,
    "naĠ": 304,
    "sk": 305,
    "Ġm": 306,
    "goĠ": 307,
    "le": 308,
    "on": 309,
    "Ã³w": 310,
    "uĠ": 311,
    "ob": 312,
    "ci": 313,
    "re": 314,
    "po": 315,
    "jÄħ": 316,
    "ne": 317,
    "ia": 318,
    "oÅĽ": 319,
    "am": 320,
    "Ġt": 321,
    "aw": 322,
    "niaĠ": 323,
    "jĠ": 324,
    "kt": 325,
    "at": 326,
    "cj": 327,
    "om": 328,
    "nieĠ": 329,
    "ad": 330,
    "ym": 331,
    "cze": 332,
    "ÅĦ": 333,
    "==": 334,
    "siÄĻ": 335,
    "ka": 336,
    "Âł": 337,
    "in": 338,
    "âĢĶ": 339,
    "cie": 340,
    "ko": 341,
    "al": 342,
    "ĠS": 343,
    "ce": 344,
    "os": 345,
    "zĠ": 346,
    "dzie": 347,
    "wĠ": 348,
    "rzy": 349,
    "za": 350,
    "ot": 351,
    "ÄħĠ": 352,
    "ÄĩĠ": 353,
    "czy": 354,
    "20": 355,
    "ĠwĠ": 356,
    "er": 357,
    "owa": 358,
    "en": 359,
    "wi": 360,
    "Ġprze": 361,
    "Å¼e": 362,
    "Ġwy": 363,
    "wie": 364,
    "wy": 365,
    "by": 366,
    "mie": 367,
    "ol": 368,
    "ychĠ": 369,
    "wa": 370,
    "ktÃ³": 371,
    "jÄħc": 372,
    "dzi": 373,
    "Å¼eĠ": 374,
    "ciĠ": 375,
    "ry": 376,
    "sze": 377,
    "pra": 378,
    "mi": 379,
    "čĠ": 380,
    "as": 381,
    "jak": 382,
    "rÃ³": 383,
    "prze": 384,
    "ku": 385,
    "Ġpo": 386,
    "ru": 387,
    "ĠiĠ": 388,
    "ĠsiÄĻ": 389,
    "âĢĶĠ": 390,
    "kie": 391,
    "ymĠ": 392,
    "jest": 393,
    "roz": 394,
    "ĠdoĠ": 395,
    "og": 396,
    "Å¼y": 397,
    "ÅĤu": 398,
    "zy": 399,
    "owie": 400,
    "a,Ġ": 401,
    "lu": 402,
    "op": 403,
    "tu": 404,
    "skie": 405,
    "===": 406,
    "ki": 407,
    "ej": 408,
    "wo": 409,
    "chĠ": 410,
    "noÅĽ": 411,
    "kaĠ": 412,
    "ty": 413,
    "ate": 414,
    "odz": 415,
    "cy": 416,
    "emĠ": 417,
    ":Ġ": 418,
    "ost": 419,
    "ĠzĠ": 420,
    "ktÃ³r": 421,
    "ÅĤo": 422,
    "Äħd": 423,
    "Ġza": 424,
    "nyĠ": 425,
    "toĠ": 426,
    "em": 427,
    "ÅĤĠ": 428,
    "is": 429,
    "jeĠ": 430,
    "kiĠ": 431,
    "ÄĻĠ": 432,
    "go": 433,
    "neĠ": 434,
    "ÅĤa": 435,
    "doĠ": 436,
    "kĠ": 437,
    "liĠ": 438,
    "ÅĤaĠ": 439,
    "Ã³wĠ": 440,
    "byĠ": 441,
    "gor": 442,
    "nia": 443,
    "pie": 444,
    "cjiĠ": 445,
    "ut": 446,
    "un": 447,
    "ok": 448,
    "szy": 449,
    "cyĠ": 450,
    "ust": 451,
    "bi": 452,
    "owe": 453,
    "Kate": 454,
    "ora": 455,
    "goria": 456,
    "Kategoria": 457,
    "Kategoria:": 458,
    "dĠ": 459,
    "dyĠ": 460,
    "jed": 461,
    "ta": 462,
    "201": 463,
    ",ĠÅ¼eĠ": 464,
    "tak": 465,
    "fi": 466,
    "siÄĻĠ": 467,
    "âĢĵ": 468,
    "art": 469,
    "da": 470,
    "sp": 471,
    "ÄĻd": 472,
    "us": 473,
    "y,Ġ": 474,
    "la": 475,
    "owi": 476,
    "laĠ": 477,
    "Äħc": 478,
    "gÅĤ": 479,
    "stw": 480,
    "nych": 481,
    "ja": 482,
    "pod": 483,
    "ud": 484,
    ".ĠW": 485,
    ",ĠaĠ": 486,
    "ma": 487,
    "zna": 488,
    "aÅĤĠ": 489,
    "Å¼Ġ": 490,
    "ieĠ": 491,
    "ez": 492,
    "owan": 493,
    "rod": 494,
    "Åº": 495,
    "negoĠ": 496,
    "mo": 497,
    "ÅĤoĠ": 498,
    "caĠ": 499,
    "mu": 500,
    "AR": 501,
    "i,Ġ": 502,
    ")Ġ": 503,
    "rĠ": 504,
    "âĢŀ": 505,
    "Ġprzy": 506,
    "im": 507,
    "19": 508,
    "sty": 509,
    "OR": 510,
    "PAR": 511,
    "aÅĤaĠ": 512,
    "tĠ": 513,
    "wia": 514,
    "UR": 515,
    "Ġpod": 516,
    ".ĠP": 517,
    "dy": 518,
    "myĠ": 519,
    "ek": 520,
    "naj": 521,
    "Na": 522,
    "AT": 523,
    "szcze": 524,
    "no": 525,
    "âĢĿ": 526,
    "CE": 527,
    ",ĠktÃ³r": 528,
    "for": 529,
    "ĠSE": 530,
    "ORĠ": 531,
    "ĠSO": 532,
    "===ĠSO": 533,
    "===ĠSOUR": 534,
    "===ĠSOURCE": 535,
    "===ĠSOURCEĠSE": 536,
    "===ĠSOURCEĠSEPAR": 537,
    "===ĠSOURCEĠSEPARAT": 538,
    "ORĠ===": 539,
    "pe": 540,
    "ga": 541,
    "koĠ": 542,
    "ur": 543,
    "we": 544,
    "nÄħ": 545,
    "orz": 546,
    "przy": 547,
    "ĠK": 548,
    "sta": 549,
    "si": 550,
    "bli": 551,
    "ĠP": 552,
    "leĠ": 553,
    "Ġpra": 554,
    "bie": 555,
    "coĠ": 556,
    "ÄĻp": 557,
    "czas": 558,
    "ĠsiÄĻĠ": 559,
    "nychĠ": 560,
    "kow": 561,
    "Ġwie": 562,
    "dziaÅĤ": 563,
    "ÅĽci": 564,
    "nym": 565,
    "kuĠ": 566,
    "nej": 567,
    "ĠĠ": 568,
    "raz": 569,
    "jegoĠ": 570,
    "du": 571,
    "czyĠ": 572,
    "gra": 573,
    "rÃ³d": 574,
    "praw": 575,
    "amiĠ": 576,
    "noÅĽciĠ": 577,
    "jÄĻ": 578,
    "ju": 579,
    "jestĠ": 580,
    "ÅĤad": 581,
    "gi": 582,
    "niej": 583,
    "staw": 584,
    "zg": 585,
    "jÄħĠ": 586,
    "lub": 587,
    "niĠ": 588,
    "um": 589,
    "Ġmo": 590,
    "pi": 591,
    "kon": 592,
    "rzyĠ": 593,
    "oÅĽciĠ": 594,
    "czÄĻ": 595,
    "ran": 596,
    "Eu": 597,
    "pis": 598,
    "ceĠ": 599,
    ",Ġjak": 600,
    "ÅĤyĠ": 601,
    "Ġ(": 602,
    "odĠ": 603,
    "egoĠ": 604,
    "spo": 605,
    "00": 606,
    "Ġpro": 607,
    "ÅĦstw": 608,
    "ski": 609,
    "Nie": 610,
    ".Âł": 611,
    "stÄĻp": 612,
    "rw": 613,
    "sÅĤ": 614,
    "ĠtoĠ": 615,
    "powie": 616,
    "pa": 617,
    "obie": 618,
    "zaĠ": 619,
    "niu": 620,
    "ĠÅ": 621,
    "Ã³l": 622,
    "ĠW": 623,
    "sie": 624,
    "ent": 625,
    "nik": 626,
    "szyst": 627,
    "rop": 628,
    "rÄĻ": 629,
    "chod": 630,
    "tegoĠ": 631,
    "de": 632,
    "oÅĽci": 633,
    "nejĠ": 634,
    "cieĠ": 635,
    "Ã³ÅĤ": 636,
    "miĠ": 637,
    "ri": 638,
    "¹rÃ³d": 639,
    ",Ġw": 640,
    "szyĠ": 641,
    "owyĠ": 642,
    "stro": 643,
    "Ch": 644,
    "pro": 645,
    "oj": 646,
    "!Ġ": 647,
    "Je": 648,
    "Ġtak": 649,
    "iast": 650,
    "aÅĤyĠ": 651,
    "rÃ³w": 652,
    "cĠ": 653,
    "zd": 654,
    "Pol": 655,
    "waĠ": 656,
    "ca": 657,
    "cjaĠ": 658,
    "orzÄħd": 659,
    "ona": 660,
    "sy": 661,
    "bud": 662,
    "stan": 663,
    "unk": 664,
    "rzym": 665,
    "UE": 666,
    "ĠzaĠ": 667,
    "bra": 668,
    "cyj": 669,
    "ĠÅ¹rÃ³d": 670,
    "kom": 671,
    "ska": 672,
    "do": 673,
    "jaĠ": 674,
    "10": 675,
    "oba": 676,
    "nrĠ": 677,
    "ÅĤug": 678,
    ".čĠ": 679,
    "et": 680,
    "nieĠm": 681,
    "iaĠ": 682,
    "ÅĤy": 683,
    "ÂłÂł": 684,
    "nymĠ": 685,
    "zu": 686,
    "ÅĽl": 687,
    "niuĠ": 688,
    "ten": 689,
    "nieĠz": 690,
    "zgl": 691,
    "usz": 692,
    "Dz": 693,
    "jÄħcĠ": 694,
    "nist": 695,
    "go,Ġ": 696,
    "wiÄĻ": 697,
    "nicz": 698,
    "bez": 699,
    "zglÄĻd": 700,
    "ĠZ": 701,
    "ciÄħ": 702,
    "aÅĤoĠ": 703,
    "zeniaĠ": 704,
    "ul": 705,
    "ropej": 706,
    "orazĠ": 707,
    ",ĠwĠ": 708,
    "pr": 709,
    "âĢĵĠ": 710,
    "Ġwi": 711,
    "up": 712,
    "temĠ": 713,
    "oko": 714,
    "nika": 715,
    "licz": 716,
    "owaĠ": 717,
    ".ĠT": 718,
    "ist": 719,
    ".ĠZ": 720,
    "odzi": 721,
    "Ġmie": 722,
    "uw": 723,
    ",ĠÅ¼e": 724,
    "ter": 725,
    "nÄĻ": 726,
    "Ġty": 727,
    "ara": 728,
    "bar": 729,
    "rozp": 730,
    "1.": 731,
    "rysty": 732,
    "js": 733,
    "Kom": 734,
    "ycz": 735,
    ",Ġz": 736,
    "oraz": 737,
    "arz": 738,
    "leg": 739,
    "Mi": 740,
    "Ã³r": 741,
    "res": 742,
    "owych": 743,
    "Ġg": 744,
    "bÄĻ": 745,
    "ach": 746,
    ",Ġpo": 747,
    "Ġspra": 748,
    "pow": 749,
    "wiÄħ": 750,
    "ktÃ³re": 751,
    "taĠ": 752,
    "one": 753,
    "kra": 754,
    "Ġpow": 755,
    "In": 756,
    "ÅĽwia": 757,
    "jiĠ": 758,
    "ĠB": 759,
    "nt": 760,
    "ĠpoĠ": 761,
    "Europej": 762,
    "skiĠ": 763,
    "nÄħĠ": 764,
    ".ĠS": 765,
    "Å¼yĠ": 766,
    ",Ġg": 767,
    "ĠÅ¹rÃ³dÅĤo": 768,
    "ĠA": 769,
    "lkoĠ": 770,
    "aleĠ": 771,
    "rat": 772,
    "2.": 773,
    "Ġmi": 774,
    "lat": 775,
    "boĠ": 776,
    ".Ġ1": 777,
    "..": 778,
    "liw": 779,
    "dni": 780,
    ".ĠN": 781,
    "âĢ¦": 782,
    "Ġpa": 783,
    "tem": 784,
    "szeĠ": 785,
    "onyĠ": 786,
    "lot": 787,
    ".ĠO": 788,
    "owegoĠ": 789,
    ",Ġs": 790,
    "rog": 791,
    "ujeĠ": 792,
    "(UE": 793,
    "skiej": 794,
    "niÄĻ": 795,
    "26": 796,
    "Ġr": 797,
    "Ar": 798,
    "owaniaĠ": 799,
    ";Ġ": 800,
    "ÅĽmie": 801,
    "ÅĤe": 802,
    "ciaĠ": 803,
    "Naj": 804,
    "awi": 805,
    "pad": 806,
    "Ã³w,Ġ": 807,
    "zost": 808,
    "uwzglÄĻd": 809,
    "ĠnaĠ": 810,
    "ĠG": 811,
    "ale": 812,
    "oc": 813,
    "dlaĠ": 814,
    "piecze": 815,
    "ĠprzezĠ": 816,
    "skiegoĠ": 817,
    "cza": 818,
    "caÅĤ": 819,
    "Äĩ,Ġ": 820,
    "aÅ¼": 821,
    "oÅĤ": 822,
    "kole": 823,
    "ich": 824,
    "oli": 825,
    "wÃ³": 826,
    "Ġnie": 827,
    "rozporzÄħd": 828,
    "el": 829,
    "Ġpie": 830,
    "ÅĤemĠ": 831,
    "nic": 832,
    ".ĠA": 833,
    "ag": 834,
    "Ġte": 835,
    "ali": 836,
    "Ġk": 837,
    "ole": 838,
    "nia,Ġ": 839,
    "jej": 840,
    ")ĠnrĠ": 841,
    "nom": 842,
    "forma": 843,
    "odpowie": 844,
    "raĠ": 845,
    "ÅĽmyĠ": 846,
    "18": 847,
    "ymiĠ": 848,
    "noÅĽci": 849,
    "noĠ": 850,
    "/201": 851,
    "bÄĻdzie": 852,
    "adyĠ": 853,
    ".ĠM": 854,
    "Ġprzed": 855,
    "niiĠ": 856,
    "uch": 857,
    "cow": 858,
    "ustaw": 859,
    "uwzglÄĻdnia": 860,
    "pre": 861,
    "ny": 862,
    "ĠÅ¹rÃ³dÅĤo:Ġ": 863,
    "tw": 864,
    "my": 865,
    "kar": 866,
    "tyĠ": 867,
    "u,Ġ": 868,
    "Ġna": 869,
    "kÄĻ": 870,
    "jaz": 871,
    "Ġro": 872,
    "funk": 873,
    "zyĠ": 874,
    "13": 875,
    "poĠ": 876,
    "tuĠ": 877,
    "Ġwszyst": 878,
    "anyĠ": 879,
    "il": 880,
    "owej": 881,
    ",ĠcoĠ": 882,
    "baĠ": 883,
    "rÃ³Å¼": 884,
    "cjeĠ": 885,
    "budÅ¼e": 886,
    "amĠ": 887,
    "ktor": 888,
    "aniaĠ": 889,
    "ĠSam": 890,
    "osob": 891,
    "czneĠ": 892,
    "owejĠ": 893,
    "oÅĽÄĩ": 894,
    "ĠT": 895,
    ",ĠktÃ³ryĠ": 896,
    "ĠdniaĠ": 897,
    "okre": 898,
    "jÄħce": 899,
    "Ġu": 900,
    "ÅĽcie": 901,
    "to": 902,
    "jejĠ": 903,
    "kor": 904,
    "row": 905,
    "kiemĠ": 906,
    "onaĠ": 907,
    "Ã³b": 908,
    "ÅĤuÅ¼": 909,
    "odzin": 910,
    "zw": 911,
    "ÅĤÄħ": 912,
    "peÅĤ": 913,
    "bliÅ¼": 914,
    "skaĠ": 915,
    "mat": 916,
    "szczeg": 917,
    "trz": 918,
    "Ġdo": 919,
    "Ã³wi": 920,
    "ĠD": 921,
    "ciÄĻ": 922,
    "bu": 923,
    "czÄħ": 924,
    "ĠN": 925,
    "chodz": 926,
    ".ĠD": 927,
    "art.Ġ": 928,
    "iÄĻdz": 929,
    "nieĠw": 930,
    "oweĠ": 931,
    "2018": 932,
    "kÅĤad": 933,
    "oneĠ": 934,
    "bo": 935,
    "jÄħceĠ": 936,
    "niemĠ": 937,
    "Ġspo": 938,
    "Wy": 939,
    "ĠdlaĠ": 940,
    "umie": 941,
    "niem": 942,
    "iĠz": 943,
    "jeszcze": 944,
    "arak": 945,
    "oÅĽÄĩĠ": 946,
    "stos": 947,
    "nau": 948,
    "Jak": 949,
    "nie,Ġ": 950,
    "gÅĤos": 951,
    "iĠw": 952,
    "lan": 953,
    "czÅĤ": 954,
    "Ġsprawie": 955,
    "ichĠ": 956,
    "kona": 957,
    "17": 958,
    "god": 959,
    "unika": 960,
    "Komis": 961,
    "Ġzak": 962,
    "ĠwiÄĻ": 963,
    "dom": 964,
    "lo": 965,
    "muĠ": 966,
    "byÅĤoĠ": 967,
    "nad": 968,
    "ÅĦĠ": 969,
    "prowa": 970,
    "Äħce": 971,
    "jazdĠ": 972,
    "tro": 973,
    "stra": 974,
    "ÅĽĠ": 975,
    "ba": 976,
    "ami": 977,
    "ew": 978,
    "Ġde": 979,
    "niejĠ": 980,
    "kÃ³w": 981,
    "byÅĤ": 982,
    "ĠM": 983,
    "200": 984,
    "yw": 985,
    "St": 986,
    "pu": 987,
    "arakte": 988,
    "ĠO": 989,
    ".ĠB": 990,
    "Ġma": 991,
    "Art": 992,
    "cha": 993,
    "kaÅ¼": 994,
    "ciÄħg": 995,
    "Ġpowie": 996,
    "owychĠ": 997,
    "Äħ,Ġ": 998,
    "obaczy": 999,
    "II": 1000,
    ".ĠC": 1001,
    "szczegÃ³l": 1002,
    ".ĠJe": 1003,
    "aliĠ": 1004,
    "iÂł": 1005,
    "anaĠ": 1006,
    "Art.Âł": 1007,
    "ns": 1008,
    "ochod": 1009,
    "rzek": 1010,
    "dÅĤ": 1011,
    "ny,Ġ": 1012,
    "trze": 1013,
    "cu": 1014,
    "onych": 1015,
    "m,Ġ": 1016,
    "rud": 1017,
    "opie": 1018,
    "min": 1019,
    "Ġswo": 1020,
    "aniĠ": 1021,
    "bor": 1022,
    "dob": 1023,
    "ÅĦstwoĠ": 1024,
    "ĠR": 1025,
    "ezpiecze": 1026,
    "py": 1027,
    "przed": 1028,
    "Å¼naĠ": 1029,
    "stronom": 1030,
    "zenieĠ": 1031,
    "owiÄħ": 1032,
    ".ĠL": 1033,
    "16": 1034,
    "est": 1035,
    "siÄħ": 1036,
    "ksz": 1037,
    "owiĠ": 1038,
    "RadyĠ": 1039,
    "tejĠ": 1040,
    "ĠC": 1041,
    "jakoĠ": 1042,
    "eÅĤ": 1043,
    "czu": 1044,
    "owym": 1045,
    "sam": 1046,
    "ed": 1047,
    "utor": 1048,
    "wiÄħz": 1049,
    "ral": 1050,
    "lubĠ": 1051,
    "ÅĽwie": 1052,
    "Ġzaw": 1053,
    "be": 1054,
    "lotni": 1055,
    "rÃ³wnie": 1056,
    "jÄħcych": 1057,
    "ada": 1058,
    "ĠtymĠ": 1059,
    "NajbliÅ¼": 1060,
    "czÄĻÅĽ": 1061,
    "aneĠ": 1062,
    "star": 1063,
    "waÅ¼": 1064,
    "Nau": 1065,
    "âĢī": 1066,
    "olo": 1067,
    "tor": 1068,
    "Ġr.": 1069,
    "nieĠp": 1070,
    "nale": 1071,
    "dot": 1072,
    "zeĠ": 1073,
    "Åļ": 1074,
    "odzie": 1075,
    "ÅĦst": 1076,
    "ryĠ": 1077,
    "noÅĽÄĩ": 1078,
    "jedna": 1079,
    "es": 1080,
    "miejs": 1081,
    "ÅĽliĠ": 1082,
    "juÅ¼": 1083,
    "uÅ¼y": 1084,
    "of": 1085,
    "funkcj": 1086,
    "nans": 1087,
    "chwi": 1088,
    "aĠw": 1089,
    ".ĠK": 1090,
    "ÅĽmier": 1091,
    "bÄĻd": 1092,
    "zi": 1093,
    "akup": 1094,
    "lam": 1095,
    "toĠz": 1096,
    "nas": 1097,
    "swo": 1098,
    "szcz": 1099,
    "astronom": 1100,
    "aÄĩ": 1101,
    "dzoĠ": 1102,
    "abyĠ": 1103,
    "list": 1104,
    "Ġsam": 1105,
    "czne": 1106,
    "okoli": 1107,
    "koÅĦ": 1108,
    ").": 1109,
    "imĠ": 1110,
    "Prze": 1111,
    "ÅĽrod": 1112,
    "gen": 1113,
    "(UE)ĠnrĠ": 1114,
    "juÅ¼Ġ": 1115,
    "12": 1116,
    "Ġpom": 1117,
    "le,Ġ": 1118,
    "y.": 1119,
    "chÅĤ": 1120,
    "ser": 1121,
    "ane": 1122,
    "scyĠ": 1123,
    "ch,Ġ": 1124,
    "ontak": 1125,
    "2020": 1126,
    "ĠĠĠĠ": 1127,
    "3.": 1128,
    "gani": 1129,
    "maĠ": 1130,
    "obowiÄħ": 1131,
    "),Ġ": 1132,
    "Ã³j": 1133,
    "Ġsy": 1134,
    ",ĠktÃ³reĠ": 1135,
    "jakĠ": 1136,
    "uwzglÄĻdniajÄħcĠ": 1137,
    "arzy": 1138,
    "ery": 1139,
    "kil": 1140,
    "30": 1141,
    "UniiĠ": 1142,
    "przezĠ": 1143,
    "waÅĤ": 1144,
    "oz": 1145,
    "and": 1146,
    "Ġmiast": 1147,
    "Ġwiel": 1148,
    "gdyĠ": 1149,
    "Ġsie": 1150,
    "rad": 1151,
    "ab": 1152,
    "finans": 1153,
    "now": 1154,
    "arakterysty": 1155,
    "anoĠ": 1156,
    "zas": 1157,
    "rug": 1158,
    "kiem": 1159,
    "28": 1160,
    "2026": 1161,
    "WĠ": 1162,
    "25": 1163,
    "Minist": 1164,
    "skiejĠ": 1165,
    "kolej": 1166,
    "formacjeĠ": 1167,
    "owanie": 1168,
    "15": 1169,
    "ospod": 1170,
    "nikaĠ": 1171,
    "robi": 1172,
    "tym": 1173,
    "cyz": 1174,
    "Ġmar": 1175,
    "liÅĽmyĠ": 1176,
    "bardzoĠ": 1177,
    "ÅĤas": 1178,
    "wod": 1179,
    ".ĠWĠ": 1180,
    "Charakterysty": 1181,
    "owaÅĤ": 1182,
    "cho": 1183,
    "korzy": 1184,
    "zaw": 1185,
    "ki,Ġ": 1186,
    "nadĠ": 1187,
    "krÃ³": 1188,
    "stanowi": 1189,
    "ocleg": 1190,
    "iÄĻdzyĠ": 1191,
    "14": 1192,
    "byÅĤaĠ": 1193,
    "por": 1194,
    "taÅĤ": 1195,
    "ene": 1196,
    "org": 1197,
    "kry": 1198,
    "razĠ": 1199,
    "aĠiĠ": 1200,
    "strze": 1201,
    "daw": 1202,
    "Mar": 1203,
    "ospodar": 1204,
    "ywa": 1205,
    "war": 1206,
    "rokĠ": 1207,
    "Âłr": 1208,
    "teĠ": 1209,
    "iel": 1210,
    "nawe": 1211,
    "obe": 1212,
    "nos": 1213,
    "owaÄĩ": 1214,
    "ciel": 1215,
    "obacz": 1216,
    "stawi": 1217,
    "ruch": 1218,
    "InformacjeĠ": 1219,
    "minist": 1220,
    "o,Ġ": 1221,
    "ÄĻ,Ġ": 1222,
    "tra": 1223,
    "turysty": 1224,
    "toĠzobaczy": 1225,
    "stru": 1226,
    "jÄħcyĠ": 1227,
    "ĠtylkoĠ": 1228,
    "ÅĤat": 1229,
    ".U": 1230,
    "artoĠzobaczy": 1231,
    "tylkoĠ": 1232,
    "Dz.U": 1233,
    "cji": 1234,
    "regi": 1235,
    "den": 1236,
    "ochodemĠ": 1237,
    "1Ġ": 1238,
    "oĠw": 1239,
    "cja": 1240,
    "dziĠ": 1241,
    "Å»": 1242,
    "sÅĤaw": 1243,
    "ele": 1244,
    "Ġpraw": 1245,
    "ekĠ": 1246,
    "och": 1247,
    "ogra": 1248,
    "rob": 1249,
    "daĠ": 1250,
    "wier": 1251,
    "3,Ġ": 1252,
    "byÄĩ": 1253,
    "ers": 1254,
    "NajbliÅ¼szeĠ": 1255,
    "tej": 1256,
    "ÅĤoÅ¼": 1257,
    "rzÄĻd": 1258,
    "takÅ¼eĠ": 1259,
    "nĠ": 1260,
    "Ġzas": 1261,
    "zak": 1262,
    "pew": 1263,
    "tar": 1264,
    "nastÄĻp": 1265,
    "Ġpol": 1266,
    "Ġpos": 1267,
    "drog": 1268,
    "Ġroku": 1269,
    "ĠF": 1270,
    "ÄħceĠ": 1271,
    "ÄħĠw": 1272,
    "Kategoria:Pol": 1273,
    "byÅĤĠ": 1274,
    "Ġprzez": 1275,
    "kÃ³wĠ": 1276,
    "esti": 1277,
    "mnie": 1278,
    "szka": 1279,
    ".ĠU": 1280,
    "dzieĠ": 1281,
    "Ġzna": 1282,
    "NajbliÅ¼szeĠokoli": 1283,
    "cÃ³w": 1284,
    "kaz": 1285,
    "?Ġ": 1286,
    "tel": 1287,
    "organi": 1288,
    "siÄĻÅ¼y": 1289,
    "budÅ¼et": 1290,
    "Ġzost": 1291,
    "UniiĠEuropej": 1292,
    "czÅĤowie": 1293,
    "noÅĽÄĩĠ": 1294,
    "szegoĠ": 1295,
    "prowadz": 1296,
    ".ĠNie": 1297,
    "iiĠ": 1298,
    "spor": 1299,
    "maÅĤ": 1300,
    "ĠwĠsprawie": 1301,
    "InformacjeĠturysty": 1302,
    "tymĠ": 1303,
    "niegoĠ": 1304,
    "kre": 1305,
    "czyn": 1306,
    "anych": 1307,
    "inte": 1308,
    "ÅĽÄĩ": 1309,
    ".ĠI": 1310,
    "okreÅĽl": 1311,
    "kiedyĠ": 1312,
    "nieĠd": 1313,
    "ckie": 1314,
    "ÅĤecz": 1315,
    "ÅĤos": 1316,
    "pat": 1317,
    "ciaÅĤ": 1318,
    "niejsz": 1319,
    "nikĠ": 1320,
    "kol": 1321,
    "ĠprzyĠ": 1322,
    "AĠ": 1323,
    "ani": 1324,
    "noc": 1325,
    "nieĠwy": 1326,
    "nieniaĠ": 1327,
    "Ġpot": 1328,
    "nieĠs": 1329,
    "jestĠw": 1330,
    "gru": 1331,
    "Pra": 1332,
    "na,Ġ": 1333,
    "ktÃ³rych": 1334,
    "kl": 1335,
    "owaneĠ": 1336,
    "man": 1337,
    "achĠ": 1338,
    "naĠw": 1339,
    "jazd": 1340,
    "uje": 1341,
    "istor": 1342,
    "stÄħ": 1343,
    "Wi": 1344,
    "obus": 1345,
    "szĠ": 1346,
    "amyĠ": 1347,
    "nymiĠ": 1348,
    "oĠwĠ": 1349,
    "ĠzĠdniaĠ": 1350,
    "Ġwszystki": 1351,
    "arze": 1352,
    "utobus": 1353,
    "ca,Ġ": 1354,
    "imie": 1355,
    "Ġpor": 1356,
    "iem": 1357,
    "ana": 1358,
    "ĠKom": 1359,
    "kÄħ": 1360,
    "iada": 1361,
    "wieĠ": 1362,
    "uĠiĠ": 1363,
    ",ĠktÃ³raĠ": 1364,
    ",ĠaleĠ": 1365,
    "Ġpan": 1366,
    "impre": 1367,
    "Ġmiejs": 1368,
    "gu": 1369,
    "ratu": 1370,
    "mog": 1371,
    "ĠwÄĻ": 1372,
    "spÃ³ÅĤ": 1373,
    "obaczĠte": 1374,
    "ĠmiĠ": 1375,
    "tow": 1376,
    "lÄħd": 1377,
    "UniiĠEuropejskiej": 1378,
    "czeniaĠ": 1379,
    "wiel": 1380,
    "su": 1381,
    "ranspor": 1382,
    "ĠDo": 1383,
    "byÄĩĠ": 1384,
    "cji,Ġ": 1385,
    "Ġpierw": 1386,
    "mar": 1387,
    "sob": 1388,
    "Par": 1389,
    "ratom": 1390,
    "miast": 1391,
    "rzecz": 1392,
    "racaĠ": 1393,
    "akupyĠ": 1394,
    "Euratom": 1395,
    "skich": 1396,
    "ial": 1397,
    "ÅĤĠsiÄĻ": 1398,
    "leÅ¼": 1399,
    "ksiÄħ": 1400,
    "jeĠsiÄĻ": 1401,
    "narod": 1402,
    "nost": 1403,
    "szk": 1404,
    "amie": 1405,
    "sÄħ": 1406,
    "rzÄħd": 1407,
    "pl": 1408,
    "estiwa": 1409,
    "znacz": 1410,
    "a.": 1411,
    "ĠDojazdĠ": 1412,
    "ĠZakupyĠ": 1413,
    "nu": 1414,
    "aj": 1415,
    "Åģ": 1416,
    "ezpieczeÅĦstwoĠ": 1417,
    "olotemĠ": 1418,
    "ĠSamochodemĠ": 1419,
    "estiwale,Ġ": 1420,
    "estiwale,Ġimpre": 1421,
    "szejĠ": 1422,
    "sko": 1423,
    "naĠpo": 1424,
    "orze": 1425,
    "ĠSamolotemĠ": 1426,
    "Pa": 1427,
    "rzu": 1428,
    "formu": 1429,
    "ĠBezpieczeÅĦstwoĠ": 1430,
    "yÅĽl": 1431,
    "ĠwĠd": 1432,
    "go.": 1433,
    "krzy": 1434,
    "ÅĦstwaĠ": 1435,
    "nia.": 1436,
    "KomisjiĠ": 1437,
    "ĠKontak": 1438,
    "ĠKontaktĠ": 1439,
    "lek": 1440,
    "niÅ¼": 1441,
    "NaĠ": 1442,
    "obec": 1443,
    "rokĠbudÅ¼et": 1444,
    "rokĠbudÅ¼etowyĠ": 1445,
    "Ġser": 1446,
    "organ": 1447,
    "ministra": 1448,
    "tych": 1449,
    "czegoĠ": 1450,
    "rozumie": 1451,
    "szu": 1452,
    "EuropejskiegoĠ": 1453,
    ".ĠR": 1454,
    "sÃ³b": 1455,
    "ĠmarcaĠ": 1456,
    "ejĠ": 1457,
    "chÅĤop": 1458,
    "rÃ³ci": 1459,
    "nimĠ": 1460,
    "Ã³wĠiĠ": 1461,
    "24": 1462,
    "Ġpi": 1463,
    "onoĠ": 1464,
    "sÅĤu": 1465,
    ",Ġpoz": 1466,
    "przez": 1467,
    "Po": 1468,
    "rokĠbudÅ¼etowyĠ2018": 1469,
    "ĠGastronom": 1470,
    "ĠGastronomiaĠ": 1471,
    "ment": 1472,
    "stem": 1473,
    "Sam": 1474,
    "wag": 1475,
    "lep": 1476,
    "Sz": 1477,
    "ÅĽre": 1478,
    "iÄĻk": 1479,
    "Å¼eliĠ": 1480,
    "ĠWy": 1481,
    "owanieĠ": 1482,
    "ubli": 1483,
    "pol": 1484,
    "96": 1485,
    "nicyĠ": 1486,
    "ogÃ³l": 1487,
    "ÄĻÅ¼": 1488,
    "czeÅĽ": 1489,
    ",ĠiĠ": 1490,
    "198": 1491,
    "miaÅĤ": 1492,
    "dÅº": 1493,
    "cel": 1494,
    "dziaÅĤa": 1495,
    "staÅĤ": 1496,
    "IĠ": 1497,
    "moÅ¼eĠ": 1498,
    "pÅĤy": 1499,
    "ktÃ³ry": 1500,
    "Le": 1501,
    "rozporzÄħdzenieĠ": 1502,
    "ĠNocleg": 1503,
    "szaĠ": 1504,
    "ktĠ": 1505,
    "chodziĠ": 1506,
    "fe": 1507,
    "nÄĻtrz": 1508,
    "stycz": 1509,
    "szczegÃ³lnoÅĽciĠ": 1510,
    "/2013,Ġ": 1511,
    "obaczĠteÅ¼": 1512,
    "obra": 1513,
    "bro": 1514,
    "kro": 1515,
    "cjÄĻ": 1516,
    "owaĠwĠ": 1517,
    "CharakterystykaĠ": 1518,
    "ÅĤoÅĦ": 1519,
    "Pro": 1520,
    "sku": 1521,
    "mÃ³wi": 1522,
    "tenĠ": 1523,
    "jÄĻĠ": 1524,
    "ĠCharakterystykaĠ": 1525,
    "usi": 1526,
    "jem": 1527,
    "osÃ³b": 1528,
    "nauczy": 1529,
    "ĠmoÅ¼eĠ": 1530,
    "unikacjaĠ": 1531,
    "wszyst": 1532,
    "nag": 1533,
    "tycz": 1534,
    "lament": 1535,
    "ÅĤaÅĽci": 1536,
    "22": 1537,
    "Ġmu": 1538,
    "ucze": 1539,
    "Ġprzepis": 1540,
    "yĠiĠ": 1541,
    "Ġtym": 1542,
    "przyĠ": 1543,
    "zda": 1544,
    "fil": 1545,
    "âĢĵĠmiast": 1546,
    "alboĠ": 1547,
    "Å¼liw": 1548,
    ",ĠEuratom": 1549,
    "ami,Ġ": 1550,
    "sÄħĠ": 1551,
    "Ġsob": 1552,
    "ber": 1553,
    "Ġwym": 1554,
    "ciw": 1555,
    "ing": 1556,
    ",ĠoĠ": 1557,
    "Ġwz": 1558,
    "Ġtw": 1559,
    "iz": 1560,
    "bior": 1561,
    "jednost": 1562,
    "ojcie": 1563,
    ":čĠ": 1564,
    "ĠzÅĤ": 1565,
    "dr": 1566,
    "ÅĽwiad": 1567,
    "âĢĿĠ": 1568,
    "onegoĠ": 1569,
    "ÅĽwiat": 1570,
    "podstaw": 1571,
    "/2013,Ġ(UE)ĠnrĠ": 1572,
    "2019": 1573,
    "pan": 1574,
    "ren": 1575,
    "ĠSt": 1576,
    "onĠ": 1577,
    "iĠpo": 1578,
    "ÅĦskie": 1579,
    "ĠsÅĤ": 1580,
    "so": 1581,
    "Ã³g": 1582,
    "got": 1583,
    "!čĠ": 1584,
    "dziaÅĤĠ": 1585,
    "kaÅ¼d": 1586,
    "gospodar": 1587,
    "Ġdob": 1588,
    "gro": 1589,
    "baw": 1590,
    "ofi": 1591,
    "ĠWartoĠzobaczy": 1592,
    "ĠWartoĠzobaczyÄĩĠ": 1593,
    "ĠmaĠ": 1594,
    "administra": 1595,
    "...": 1596,
    "takĠ": 1597,
    "Ã³Å¼": 1598,
    "ac": 1599,
    "eg": 1600,
    "Dz.U.ĠL": 1601,
    "ski,Ġ": 1602,
    "omĠ": 1603,
    ",ĠgdyĠ": 1604,
    "wyÅ¼": 1605,
    "ÅĤem": 1606,
    "rowa": 1607,
    "dow": 1608,
    "arsz": 1609,
    "199": 1610,
    "tek": 1611,
    "jedno": 1612,
    "Dz.U.ĠLĠ": 1613,
    "ĠKomunikacjaĠ": 1614,
    "Å¼ad": 1615,
    "dost": 1616,
    "29": 1617,
    ".ĠG": 1618,
    "woj": 1619,
    "cjal": 1620,
    "Ġr.ĠwĠsprawie": 1621,
    "nios": 1622,
    "onal": 1623,
    "ÅĽle": 1624,
    ",ĠtoĠ": 1625,
    "ktÃ³rymĠ": 1626,
    "ang": 1627,
    "Äħcz": 1628,
    "ĠwÄĻz": 1629,
    "ÅĽÄĩĠ": 1630,
    "jakie": 1631,
    ",ĠÅ¼ebyĠ": 1632,
    "moc": 1633,
    "Ġdot": 1634,
    "pli": 1635,
    "biaÅĤ": 1636,
    "dotycz": 1637,
    "ktÃ³reĠ": 1638,
    "aÄĩĠ": 1639,
    "ĠpracyĠ": 1640,
    "se": 1641,
    "olog": 1642,
    "ĠNoclegiĠ": 1643,
    "znaj": 1644,
    "dat": 1645,
    ",ĠnaĠ": 1646,
    "ÄħĠiĠ": 1647,
    "zmie": 1648,
    "imiÄĻ": 1649,
    "icz": 1650,
    "onari": 1651,
    "rozporzÄħdzeniaĠ": 1652,
    "siÄĻĠz": 1653,
    "ÅĽli": 1654,
    ",Ġwy": 1655,
    "Ã³d": 1656,
    "ĠzwiÄħz": 1657,
    ",Ġnie": 1658,
    ".Ġ19": 1659,
    "spÃ³l": 1660,
    "kaw": 1661,
    "Ã³w.": 1662,
    "NaukaĠ": 1663,
    "rzÄĻ": 1664,
    "Ġlu": 1665,
    "ĠPracaĠ": 1666,
    "bardzie": 1667,
    "coÅĽ": 1668,
    "amiÄĻ": 1669,
    "Å¼yci": 1670,
    "wal": 1671,
    "Ġust": 1672,
    "najdu": 1673,
    ",ĠjakĠ": 1674,
    "uli": 1675,
    "szczy": 1676,
    "ary": 1677,
    "th": 1678,
    "owaÄĩĠ": 1679,
    "4.": 1680,
    "zacjiĠ": 1681,
    "m.": 1682,
    "KsiÄĻÅ¼y": 1683,
    "skim": 1684,
    "ste": 1685,
    "czymĠ": 1686,
    "ĠNaukaĠ": 1687,
    "Ka": 1688,
    "ĠsÅĤuÅ¼": 1689,
    "ĠâĢĵĠ": 1690,
    "rol": 1691,
    "owymĠ": 1692,
    "stwaĠ": 1693,
    "usÅĤug": 1694,
    "ustawyĠ": 1695,
    "era": 1696,
    "ĠwÄĻzÅĤemĠ": 1697,
    "mnieĠ": 1698,
    "ÅĤod": 1699,
    "7.": 1700,
    "Fran": 1701,
    "000": 1702,
    ",Ġza": 1703,
    "ĠE": 1704,
    "tedyĠ": 1705,
    "ÄħcegoĠ": 1706,
    "jÄĻzy": 1707,
    "ÄĩĠsiÄĻ": 1708,
    "ktÃ³regoĠ": 1709,
    "rÃ³wnieÅ¼": 1710,
    "1)": 1711,
    "Ġdecyz": 1712,
    "ĠpeÅĤ": 1713,
    "ÅĤaw": 1714,
    "iemi": 1715,
    "nekĠ": 1716,
    "art.Âł": 1717,
    "jÄħcegoĠ": 1718,
    "kan": 1719,
    "Ġdrog": 1720,
    "ka,Ġ": 1721,
    "zat": 1722,
    "Äħdz": 1723,
    "it": 1724,
    "nymĠwÄĻzÅĤemĠ": 1725,
    "âĢĶĠA": 1726,
    "ĠKole": 1727,
    "lamentuĠ": 1728,
    "owaÅ¼": 1729,
    "onychĠ": 1730,
    "rezy": 1731,
    "ĠH": 1732,
    "Minister": 1733,
    "ĠOpis": 1734,
    "kÄĻĠ": 1735,
    "wz": 1736,
    "bog": 1737,
    "Ġwykona": 1738,
    "kontro": 1739,
    "arszaw": 1740,
    "ĠNajbliÅ¼szeĠokoli": 1741,
    "ĠNajbliÅ¼szeĠokoliceĠ": 1742,
    "ktÃ³rzyĠ": 1743,
    "wol": 1744,
    "dziel": 1745,
    "nego": 1746,
    "sok": 1747,
    "nie.": 1748,
    "kobie": 1749,
    "ostat": 1750,
    "46": 1751,
    "ĠInformacjeĠturysty": 1752,
    "rodzin": 1753,
    "Pod": 1754,
    "iĠRadyĠ": 1755,
    "ĠKolejÄħĠ": 1756,
    "Ã³Åº": 1757,
    "Ġdom": 1758,
    "u.": 1759,
    "chodzi": 1760,
    "siÄĻĠw": 1761,
    "czar": 1762,
    "prawi": 1763,
    "jednak": 1764,
    "utor:Ġ": 1765,
    "stat": 1766,
    "uwzglÄĻdniajÄħc": 1767,
    ",ĠwĠszczegÃ³lnoÅĽciĠ": 1768,
    "wegoĠ": 1769,
    "rÄħ": 1770,
    "pierw": 1771,
    "iad": 1772,
    "Å¼ycie": 1773,
    "godzin": 1774,
    "teÅ¼": 1775,
    "dar": 1776,
    "ular": 1777,
    "men": 1778,
    "cent": 1779,
    "sÅĤug": 1780,
    "Ġprzypad": 1781,
    "wszyĠ": 1782,
    "5.": 1783,
    "rÃ³wnieÅ¼Ġ": 1784,
    "otrzym": 1785,
    "ParlamentuĠ": 1786,
    "Kon": 1787,
    "byÅĤyĠ": 1788,
    "naĠp": 1789,
    "ĠwÅĤas": 1790,
    "cje": 1791,
    "ĠZobaczĠteÅ¼": 1792,
    "ĠWyjazdĠ": 1793,
    "Dzie": 1794,
    "owanyĠ": 1795,
    "cki": 1796,
    "kat": 1797,
    "ksiÄĻ": 1798,
    "rodu": 1799,
    "Ġwol": 1800,
    "nim": 1801,
    "konie": 1802,
    "twaĠ": 1803,
    "/2013,Ġ(UE)ĠnrĠ13": 1804,
    "ĠmoÅ¼e": 1805,
    "âĢĶĠT": 1806,
    "Ġsi": 1807,
    "glÄħd": 1808,
    "An": 1809,
    "ĠmoÅ¼naĠ": 1810,
    "12.": 1811,
    "gmin": 1812,
    "ĠwÂł": 1813,
    "aĠwĠ": 1814,
    "szej": 1815,
    ",Ġm": 1816,
    "kach": 1817,
    "bezpiecze": 1818,
    "sĠ": 1819,
    "cjÄĻĠ": 1820,
    "wor": 1821,
    "ÄħcĠ": 1822,
    "skichĠ": 1823,
    "zĠdniaĠ": 1824,
    ".ĠNrĠ": 1825,
    "ÅĤÄħcz": 1826,
    "zÅĤ": 1827,
    "skoĠ": 1828,
    "dop": 1829,
    "ha": 1830,
    "lecz": 1831,
    "ĠmowaĠwĠ": 1832,
    ".ĠWy": 1833,
    "Do": 1834,
    "histor": 1835,
    "nieĠpo": 1836,
    "ĠL": 1837,
    "jeden": 1838,
    ",ĠzĠ": 1839,
    "skaz": 1840,
    "ÅĽwiet": 1841,
    "tele": 1842,
    "50": 1843,
    "ÅĤa,Ġ": 1844,
    "niÄħ": 1845,
    "Pi": 1846,
    "reali": 1847,
    "kÄħĠ": 1848,
    "oÅĤnie": 1849,
    "emi": 1850,
    ".ĠPo": 1851,
    "ros": 1852,
    ",ĠabyĠ": 1853,
    "ĠrokuĠ": 1854,
    "Od": 1855,
    "wozda": 1856,
    "(UE,ĠEuratom": 1857,
    "stop": 1858,
    "arty": 1859,
    "Ġprogra": 1860,
    "publi": 1861,
    "chy": 1862,
    "najm": 1863,
    "dze": 1864,
    "23": 1865,
    "Ġtra": 1866,
    "âĢĿ,Ġ": 1867,
    "ron": 1868,
    "unkow": 1869,
    "ini": 1870,
    "mian": 1871,
    "Poli": 1872,
    "Ġsobie": 1873,
    "szedÅĤ": 1874,
    "kraj": 1875,
    "aty": 1876,
    "wiad": 1877,
    "Ġdale": 1878,
    "szym": 1879,
    "gÅĤow": 1880,
    "bÅĤ": 1881,
    "pos": 1882,
    "adaĠ": 1883,
    ".ĠNaĠ": 1884,
    "eu": 1885,
    "jestĠwaÅ¼": 1886,
    "cÄĻ": 1887,
    "szt": 1888,
    "iĠwy": 1889,
    "czej": 1890,
    "nikÃ³w": 1891,
    "skimĠ": 1892,
    "Rze": 1893,
    "Kra": 1894,
    "nich": 1895,
    "bymĠ": 1896,
    "nieĠu": 1897,
    "Ġli": 1898,
    "czywi": 1899,
    "wen": 1900,
    "naz": 1901,
    "bezĠ": 1902,
    "loka": 1903,
    "âī": 1904,
    "âīĪ": 1905,
    "aÅĤemĠ": 1906,
    "ÅĽcieĠ": 1907,
    "ocz": 1908,
    "Å¼oÅĤnie": 1909,
    "jeĠsiÄĻĠ": 1910,
    "pyta": 1911,
    ".ĠJ": 1912,
    "form": 1913,
    "owaniuĠ": 1914,
    "ktÃ³ryĠ": 1915,
    "Äħcych": 1916,
    "rozm": 1917,
    "jÄħcychĠ": 1918,
    "drogowym": 1919,
    "prawie": 1920,
    "Ġmog": 1921,
    "Warszaw": 1922,
    "zaj": 1923,
    "bieĠ": 1924,
    "ĠmÃ³wi": 1925,
    "uĠnaĠ": 1926,
    "jeszczeĠ": 1927,
    "asz": 1928,
    "ĠmarcaĠ2026": 1929,
    "teÅ¼Ġ": 1930,
    "Ã³jĠ": 1931,
    "kieĠ": 1932,
    "ÅĦstwo": 1933,
    "2013": 1934,
    ":ĠâĢŀ": 1935,
    "nawet": 1936,
    "sto": 1937,
    "stoĠ": 1938,
    "nych,Ġ": 1939,
    "gar": 1940,
    "Ã³gÅĤ": 1941,
    "Ã³ÅĤnoc": 1942,
    "szko": 1943,
    "owane": 1944,
    "stwoĠ": 1945,
    "nieĠzĠ": 1946,
    "prow": 1947,
    "2Ġ": 1948,
    "amin": 1949,
    "Ġdu": 1950,
    "Ġwoj": 1951,
    "wym": 1952,
    "jeÅĽliĠ": 1953,
    "tal": 1954,
    "poÅĽre": 1955,
    "ĠlutegoĠ": 1956,
    "funkcjon": 1957,
    ",ĠboĠ": 1958,
    "zwy": 1959,
    "Nar": 1960,
    "Ġwyraz": 1961,
    "sce": 1962,
    "odpowiedni": 1963,
    "ur.Ġ19": 1964,
    "ĠFestiwale,Ġimpre": 1965,
    "ĠFestiwale,ĠimprezyĠ": 1966,
    "not": 1967,
    "jedy": 1968,
    "ÅĽwiÄĻ": 1969,
    "ÅĦstwa": 1970,
    "Ġdy": 1971,
    "ĠprzedĠ": 1972,
    "dan": 1973,
    "nymĠwÄĻzÅĤemĠdrogowym": 1974,
    "roĠ": 1975,
    "szymĠ": 1976,
    "kamiĠ": 1977,
    "Äħt": 1978,
    "czasĠ": 1979,
    "koch": 1980,
    "oce": 1981,
    "ne,Ġ": 1982,
    "jednakĠ": 1983,
    "rozpo": 1984,
    "stytu": 1985,
    "rzekÅĤ": 1986,
    "szyscyĠ": 1987,
    "Ġsze": 1988,
    "late": 1989,
    "naÅĤ": 1990,
    "Al": 1991,
    "Ġpubli": 1992,
    "Ġzasad": 1993,
    "odci": 1994,
    "bieg": 1995,
    "raze": 1996,
    "ÅĽnie": 1997,
    "ktÃ³rej": 1998,
    "Ġ4": 1999,
    "Ã³ÅĤĠ": 2000,
    "ÄħcyĠ": 2001,
    "Ġzd": 2002,
    "k,Ġ": 2003,
    "iÄĻdzy": 2004,
    "tÄĻ": 2005,
    "dziÄĻ": 2006,
    "cejĠ": 2007,
    "namĠ": 2008,
    "ksztaÅĤ": 2009,
    "(W": 2010,
    ":00": 2011,
    "ĠÅ¹rÃ³dÅĤaĠ": 2012,
    "ub": 2013,
    "uĠw": 2014,
    "czÅĤon": 2015,
    "Â§": 2016,
    "rybu": 2017,
    "np": 2018,
    "rugie": 2019,
    "iĠza": 2020,
    "aÅĤo": 2021,
    "niesie": 2022,
    "Bo": 2023,
    "rÃ³dĠ": 2024,
    "ÅĽciĠ": 2025,
    "chor": 2026,
    "bywa": 2027,
    "obowiÄħz": 2028,
    "informa": 2029,
    "har": 2030,
    "11.": 2031,
    "27": 2032,
    "two": 2033,
    "okres": 2034,
    "Ġr.Ġ": 2035,
    "korzysta": 2036,
    "Agen": 2037,
    "dÅĤug": 2038,
    "gÅĤÃ³w": 2039,
    "sÅĤuÅ¼": 2040,
    "cej": 2041,
    "Ġsp": 2042,
    "gÃ³r": 2043,
    "szar": 2044,
    "nÄħÅĤ": 2045,
    "siÄĻĠdoĠ": 2046,
    "stÄħpi": 2047,
    "Ġpew": 2048,
    ",Ġod": 2049,
    ",Ġpoz.Ġ": 2050,
    "nieĠiĠ": 2051,
    "nichĠ": 2052,
    "kraju": 2053,
    "organiza": 2054,
    "uj": 2055,
    "rzeĠ": 2056,
    "udzie": 2057,
    "zm": 2058,
    "nieĠdoĠ": 2059,
    "rator": 2060,
    "formula": 2061,
    "formula_": 2062,
    "dybyĠ": 2063,
    "Ġzam": 2064,
    "ÄĩĠnaĠ": 2065,
    "ina": 2066,
    ".ĠâĢĶĠ": 2067,
    "lÄĻ": 2068,
    "Ġsw": 2069,
    "3Ġ": 2070,
    "chciaÅĤ": 2071,
    "nosz": 2072,
    "miot": 2073,
    "uzy": 2074,
    ".pl": 2075,
    "chÄĻ": 2076,
    "wiÄĻk": 2077,
    "nigdyĠ": 2078,
    "tom": 2079,
    "nawetĠ": 2080,
    "pracow": 2081,
    "2)": 2082,
    "spoÅĤecz": 2083,
    "prowadzi": 2084,
    "dale": 2085,
    "nieĠza": 2086,
    "wÅĤa": 2087,
    "interes": 2088,
    "ÄĩĠw": 2089,
    "siÄĻĠwĠ": 2090,
    "atuĠ": 2091,
    "/2013,Ġ(UE)ĠnrĠ130": 2092,
    "iemiĠ": 2093,
    "chwiliĠ": 2094,
    "IE": 2095,
    "dzier": 2096,
    "okoÅĤoĠ": 2097,
    "ÄħcychĠ": 2098,
    "ewnÄĻtrz": 2099,
    "36": 2100,
    "Roz": 2101,
    "Za": 2102,
    "skieĠ": 2103,
    "nio": 2104,
    "ĠStat": 2105,
    "siÄĻĠnaĠ": 2106,
    "owoĠ": 2107,
    "owieĠ": 2108,
    "maÅĤy": 2109,
    "onieĠ": 2110,
    "ksiÄħÅ¼": 2111,
    "tk": 2112,
    "tyw": 2113,
    "Å¼eniaĠ": 2114,
    "Å¼yw": 2115,
    "ge": 2116,
    "kul": 2117,
    "70": 2118,
    "/man": 2119,
    "czyÅĤ": 2120,
    ".ĠCh": 2121,
    "Ġzat": 2122,
    "ktoĠ": 2123,
    "Bog": 2124,
    "oÅĽwiad": 2125,
    "UrzÄĻd": 2126,
    "chunkow": 2127,
    "pom": 2128,
    "wiÄħza": 2129,
    "Ġwo": 2130,
    "anieĠ": 2131,
    "schod": 2132,
    "av": 2133,
    "ir": 2134,
    "Bezpiecze": 2135,
    "ajÄħ": 2136,
    "ÄĩĠsiÄĻĠ": 2137,
    "ier": 2138,
    "strukt": 2139,
    "rodzi": 2140,
    "me": 2141,
    "ktÃ³rychĠ": 2142,
    "czasu": 2143,
    "sztu": 2144,
    "legÅĤ": 2145,
    "innychĠ": 2146,
    "moÅ¼naĠ": 2147,
    "ces": 2148,
    "funkcjonari": 2149,
    "prawĠ": 2150,
    "2012": 2151,
    "ĠZobaczĠteÅ¼:Ġ": 2152,
    "Ġsk": 2153,
    "onymĠ": 2154,
    "Ġspraw": 2155,
    "prowad": 2156,
    "arzÄħd": 2157,
    "ium": 2158,
    "yĠw": 2159,
    "ciuĠ": 2160,
    "uchy": 2161,
    "ble": 2162,
    "aĠz": 2163,
    "sol": 2164,
    "szczÄĻ": 2165,
    "Re": 2166,
    "bur": 2167,
    "jekt": 2168,
    "ruchom": 2169,
    "kiegoĠ": 2170,
    "spraw": 2171,
    "ustal": 2172,
    "nieĠmog": 2173,
    ".ĠToĠ": 2174,
    "lud": 2175,
    "dzia": 2176,
    ".ĠPrze": 2177,
    "ÅĤudni": 2178,
    "ujÄħc": 2179,
    "budÅ¼etuĠ": 2180,
    "Ġdost": 2181,
    "em,Ġ": 2182,
    "aĠnaĠ": 2183,
    "ÅĽni": 2184,
    "Äħ.": 2185,
    "Ġod": 2186,
    "ciem": 2187,
    "uwag": 2188,
    "ciÄĻÅ¼": 2189,
    "dniaĠ": 2190,
    "owanych": 2191,
    "Narod": 2192,
    "ktÃ³rychĠmowaĠwĠ": 2193,
    ",Ġs.Âł": 2194,
    "myÅĽl": 2195,
    "cuĠ": 2196,
    "rodze": 2197,
    "ÅĤoÅ¼y": 2198,
    "tychĠ": 2199,
    "Ma": 2200,
    "kacjiĠ": 2201,
    "Trybu": 2202,
    "tkow": 2203,
    "Ry": 2204,
    "rakt": 2205,
    "par": 2206,
    "dziw": 2207,
    "prac": 2208,
    "ory": 2209,
    "int": 2210,
    "34": 2211,
    "i.": 2212,
    "wodnicz": 2213,
    "sobie": 2214,
    ".ĠAleĠ": 2215,
    "waniaĠ": 2216,
    "chi": 2217,
    "11": 2218,
    "Ġgrud": 2219,
    "wozdanieĠ": 2220,
    "hand": 2221,
    "gnie": 2222,
    "wart": 2223,
    "sw": 2224,
    "rom": 2225,
    "granicz": 2226,
    "szyb": 2227,
    "iĠRadyĠ(UE,ĠEuratom": 2228,
    "ĠStatkiemĠ": 2229,
    "Tak": 2230,
    ",Ġprze": 2231,
    "umĠ": 2232,
    "ĠwĠp": 2233,
    "Przy": 2234,
    "naleÅ¼yĠ": 2235,
    "dziaÅĤal": 2236,
    "rozporzÄħdze": 2237,
    "miÄĻ": 2238,
    "dzieÄĩ": 2239,
    "kilkaĠ": 2240,
    "kuratu": 2241,
    "aÅĤĠsiÄĻ": 2242,
    "kiĠiĠ": 2243,
    "Ġprzedstawi": 2244,
    "ucz": 2245,
    "niÅ¼Ġ": 2246,
    ".ĠNa": 2247,
    "obyĠ": 2248,
    "rektor": 2249,
    "dziec": 2250,
    "pÅĤa": 2251,
    "oniĠ": 2252,
    "onej": 2253,
    "szech": 2254,
    "Ra": 2255,
    ".ĠBy": 2256,
    "cier": 2257,
    "Ġtu": 2258,
    "ajÄħc": 2259,
    "nieĠwĠ": 2260,
    "kimĠ": 2261,
    "Äħg": 2262,
    "ÅĽmierciĠ": 2263,
    "Ġpotrze": 2264,
    "eryka": 2265,
    "pier": 2266,
    "czerw": 2267,
    "kaza": 2268,
    "?ĠâĢĶ": 2269,
    "nieĠwi": 2270,
    "kazu": 2271,
    "DoĠ": 2272,
    ",Ġpod": 2273,
    "ska,Ġ": 2274,
    "raÅ¼": 2275,
    "nego,Ġ": 2276,
    "klas": 2277,
    "dzieci": 2278,
    "Ġdod": 2279,
    "nieĠod": 2280,
    "Ġpy": 2281,
    "czyliĠ": 2282,
    ",Ġs.Ġ1": 2283,
    "Kategoria:PolscyĠ": 2284,
    "koj": 2285,
    "brz": 2286,
    "ÅĦskiĠ": 2287,
    "ronyĠ": 2288,
    "Å¼ej": 2289,
    "liz": 2290,
    "niach": 2291,
    "zasad": 2292,
    "Gra": 2293,
    "moÅ¼": 2294,
    "zar": 2295,
    "biera": 2296,
    "leniaĠ": 2297,
    "czaĠ": 2298,
    "Bi": 2299,
    "/2014": 2300,
    ",Ġgdzie": 2301,
    "ÅĤĠsiÄĻĠ": 2302,
    "stĠ": 2303,
    "ografi": 2304,
    "Ġwar": 2305,
    "iÄĻdzynarod": 2306,
    "nauczyciel": 2307,
    "ÅĽrÃ³dĠ": 2308,
    "Ġpracow": 2309,
    "szÄĻ": 2310,
    "ÄĩĠdoĠ": 2311,
    "ludz": 2312,
    "pospo": 2313,
    "aut": 2314,
    "ust.Ġ1": 2315,
    "reg": 2316,
    "Cze": 2317,
    "kachĠ": 2318,
    "pospoli": 2319,
    "Kole": 2320,
    "Obra": 2321,
    "ĠAutor:Ġ": 2322,
    "cy,Ġ": 2323,
    "onÄħ": 2324,
    "ÅĤĠnaĠ": 2325,
    "czyst": 2326,
    "Ant": 2327,
    "cen": 2328,
    "dent": 2329,
    "utobusemĠ": 2330,
    "dod": 2331,
    "tere": 2332,
    "wÃ³j": 2333,
    "ÅĽlaĠ": 2334,
    "Ġwybor": 2335,
    "6.": 2336,
    "laz": 2337,
    "âĢĶĠiĠ": 2338,
    "awia": 2339,
    "naleÅ¼": 2340,
    "strz": 2341,
    "onym": 2342,
    "ÅĤÃ³w": 2343,
    "chce": 2344,
    "szychĠ": 2345,
    "100": 2346,
    "AgencjiĠ": 2347,
    "Ġto": 2348,
    "gÅĤÄĻ": 2349,
    "zyw": 2350,
    "Ġtrze": 2351,
    "Ġpoli": 2352,
    "edÅĤug": 2353,
    "paÅĦstw": 2354,
    "gÃ³": 2355,
    "kniÄĻ": 2356,
    "kichĠ": 2357,
    "nieĠprze": 2358,
    "ryw": 2359,
    "Ġzw": 2360,
    "szkaÅĦ": 2361,
    "poli": 2362,
    "wer": 2363,
    "inter": 2364,
    "bĠ": 2365,
    "ĠzÅĤot": 2366,
    "ĠsposÃ³b": 2367,
    "art.Ġ1": 2368,
    "âĨ": 2369,
    "ĠAutobusemĠ": 2370,
    "Å¼yciaĠ": 2371,
    "Åºdzier": 2372,
    ",Ġp": 2373,
    "nieĠwie": 2374,
    "los": 2375,
    "fer": 2376,
    "ÅĽpie": 2377,
    "czÄĻÅĽciĠ": 2378,
    "=Ġ": 2379,
    "Ġmat": 2380,
    "strasz": 2381,
    "niÄħĠ": 2382,
    "sek": 2383,
    "opera": 2384,
    "upraw": 2385,
    "wejĠ": 2386,
    "szÅĤoĠ": 2387,
    "âĢĶĠNie": 2388,
    "nicĠ": 2389,
    "ĠJ": 2390,
    "rzeÅĽ": 2391,
    "ujÄħ": 2392,
    "jeÅ¼eliĠ": 2393,
    "utrzym": 2394,
    "kÅĤ": 2395,
    "ĠmuĠ": 2396,
    "ĠmaÅĤ": 2397,
    "wali": 2398,
    "ĠoĠ": 2399,
    "kich": 2400,
    "czes": 2401,
    "Te": 2402,
    "ÅĽmiech": 2403,
    "iĠiĠ": 2404,
    ".ĠPoĠ": 2405,
    "czeÅĦ": 2406,
    "miÄĻdzyĠ": 2407,
    "bardziej": 2408,
    "zgod": 2409,
    "raktatuĠ": 2410,
    "zach": 2411,
    "ĠsÄħ": 2412,
    "Ġzmie": 2413,
    "GdyĠ": 2414,
    "pracyĠ": 2415,
    "Ġra": 2416,
    "05": 2417,
    "naĠpodstaw": 2418,
    "aÅĤa": 2419,
    "Ni": 2420,
    "ĠpaÅºdzier": 2421,
    "syj": 2422,
    "zawod": 2423,
    "niez": 2424,
    "osobyĠ": 2425,
    "znajdu": 2426,
    "absol": 2427,
    "cznych": 2428,
    "nog": 2429,
    "takie": 2430,
    "ejmu": 2431,
    "let": 2432,
    "zwo": 2433,
    "oÅĦ": 2434,
    "obli": 2435,
    "9.": 2436,
    "Paw": 2437,
    "âīĪâīĪ": 2438,
    "ĠtuĠ": 2439,
    "Ġtych": 2440,
    "oni": 2441,
    "Ġlip": 2442,
    "no-": 2443,
    "2Âł": 2444,
    "umb": 2445,
    "aktor": 2446,
    "ÄħdÅº": 2447,
    "namiĠ": 2448,
    "naĠz": 2449,
    "unkt": 2450,
    "tam": 2451,
    "ktÃ³rejĠ": 2452,
    "koÅĽci": 2453,
    ",ĠjakoĠ": 2454,
    "35": 2455,
    "regionieĠ": 2456,
    "CoĠ": 2457,
    "kowi": 2458,
    "per": 2459,
    "istnie": 2460,
    "8.": 2461,
    "tua": 2462,
    "Or": 2463,
    "siÄĻĠzĠ": 2464,
    "osi": 2465,
    "grze": 2466,
    "nikÃ³wĠ": 2467,
    "rama": 2468,
    "37": 2469,
    "ker": 2470,
    "tÅĤu": 2471,
    "krÃ³t": 2472,
    ",Ġd": 2473,
    "ĠtakĠ": 2474,
    "owaÅĤaĠ": 2475,
    "Ã³wĠw": 2476,
    "jawi": 2477,
    "ĠgrudniaĠ": 2478,
    "Äĩ.": 2479,
    "obo": 2480,
    "NieĠ": 2481,
    "czym": 2482,
    "prost": 2483,
    "Ġta": 2484,
    "undu": 2485,
    "Ġpodstaw": 2486,
    "gad": 2487,
    "der": 2488,
    "moÅ¼e": 2489,
    "teri": 2490,
    "ust.Ġ": 2491,
    "resz": 2492,
    "jeste": 2493,
    "run": 2494,
    ",ĠaĠtakÅ¼eĠ": 2495,
    "uÅĤ": 2496,
    "istot": 2497,
    "ĠorazĠ": 2498,
    "cznegoĠ": 2499,
    "40": 2500,
    "D)": 2501,
    "owaÅĤĠ": 2502,
    "tamĠ": 2503,
    "naĠd": 2504,
    "iĠp": 2505,
    "EN": 2506,
    "maÅĤy|": 2507,
    "odcinekĠ": 2508,
    ".pl,Ġ": 2509,
    "Ġpowin": 2510,
    "bÄĻdzieĠ": 2511,
    "31": 2512,
    "Ġzakres": 2513,
    "orzyĠ": 2514,
    "fra": 2515,
    "ojciec": 2516,
    "Am": 2517,
    "gaĠ": 2518,
    "kwi": 2519,
    "wil": 2520,
    "doktor": 2521,
    "czych": 2522,
    "na.": 2523,
    "czyni": 2524,
    "nar": 2525,
    "Ġpozost": 2526,
    "nikuĠ": 2527,
    "bezpoÅĽre": 2528,
    "uczest": 2529,
    "ĠOpis:": 2530,
    "id": 2531,
    "teraz": 2532,
    "dzien": 2533,
    "brze": 2534,
    "anegoĠ": 2535,
    "cjÄħ": 2536,
    "obowiÄħzu": 2537,
    "OP": 2538,
    ".ÂłÂłÂł": 2539,
    "ĠÅ¹rÃ³dÅĤo:": 2540,
    "owÄħ": 2541,
    "co": 2542,
    "nieĠmaĠ": 2543,
    "ĠwzglÄĻd": 2544,
    "he": 2545,
    "ĠwrzeÅĽ": 2546,
    "-Ġ": 2547,
    "\",Ġ": 2548,
    ".ĠMo": 2549,
    "czyz": 2550,
    "Ġwysok": 2551,
    "SA": 2552,
    "nosi": 2553,
    "ÄĩĠz": 2554,
    "las": 2555,
    "jednegoĠ": 2556,
    "oĠtym": 2557,
    "wiÄĻksz": 2558,
    "dliw": 2559,
    "innych": 2560,
    "Jani": 2561,
    "onejĠ": 2562,
    "siÅĤ": 2563,
    "leÅ¼yĠ": 2564,
    "miÅĤ": 2565,
    "wĠp": 2566,
    "nicze": 2567,
    "owaw": 2568,
    "administracyj": 2569,
    "wÃ³dz": 2570,
    "tech": 2571,
    "PL": 2572,
    "owo": 2573,
    "lach": 2574,
    "ony": 2575,
    "uryĠ": 2576,
    "szych": 2577,
    "nychĠiĠ": 2578,
    "wybor": 2579,
    "Ġzastos": 2580,
    "system": 2581,
    "ofer": 2582,
    "adwi": 2583,
    "jrz": 2584,
    "Wie": 2585,
    "Ġpat": 2586,
    "ĠpostÄĻp": 2587,
    "Pan": 2588,
    "sza": 2589,
    "sposÃ³b": 2590,
    "21": 2591,
    "owego": 2592,
    "roc": 2593,
    "966": 2594,
    "ÄĩĠwĠ": 2595,
    "szÅĤ": 2596,
    "stronyĠ": 2597,
    "Âłr.Ġ": 2598,
    "transpor": 2599,
    "Uni": 2600,
    "WiÄĻ": 2601,
    "dziedzi": 2602,
    "potrze": 2603,
    "razĠzĠ": 2604,
    "kw": 2605,
    "resie": 2606,
    "Ġznajdu": 2607,
    "3)": 2608,
    "komis": 2609,
    "tĠlotni": 2610,
    "aÅĤem": 2611,
    "rÃ³b": 2612,
    "szÅĤaĠ": 2613,
    "ku,Ġ": 2614,
    "Ã³dĠ": 2615,
    "uwaÅ¼": 2616,
    "gry": 2617,
    "orzy": 2618,
    "usiĠ": 2619,
    "pomoc": 2620,
    "preze": 2621,
    "ujeĠsiÄĻ": 2622,
    "ĠÅ¹rÃ³dÅĤo:ĠodcinekĠ": 2623,
    "bl": 2624,
    "owy": 2625,
    "czaj": 2626,
    "spra": 2627,
    "ĠI": 2628,
    "limat": 2629,
    "ĠmoÅ¼liw": 2630,
    "udziaÅĤ": 2631,
    "Âł000": 2632,
    "966/201": 2633,
    "Wiki": 2634,
    "mÃ³w": 2635,
    "Ġoraz": 2636,
    "Wiel": 2637,
    "rzch": 2638,
    "bak": 2639,
    "ĠmajaĠ": 2640,
    "39": 2641,
    "owanoĠ": 2642,
    "SK": 2643,
    "lop": 2644,
    "np.Ġ": 2645,
    "olotem": 2646,
    "dÅ¼": 2647,
    "lepie": 2648,
    "iadaĠ": 2649,
    "owarzy": 2650,
    "kiejĠ": 2651,
    "tan": 2652,
    "progra": 2653,
    "nor": 2654,
    "ny.": 2655,
    "dziaÅĤaniaĠ": 2656,
    "11.12.": 2657,
    "j,Ġ": 2658,
    "!ĠâĢĶĠ": 2659,
    ".ĠJed": 2660,
    "jÄĻt": 2661,
    "rozwiÄħza": 2662,
    "nam": 2663,
    "10.": 2664,
    "nej.": 2665,
    "ki.": 2666,
    "jewÃ³dz": 2667,
    "Dojazd": 2668,
    "Samolotem": 2669,
    "tr": 2670,
    "aÅĤĠnaĠ": 2671,
    "west": 2672,
    "jÄħĠsiÄĻ": 2673,
    "Ġmy": 2674,
    "sch": 2675,
    "Ġzgod": 2676,
    "anychĠ": 2677,
    "celu": 2678,
    "AM": 2679,
    ".ĠPod": 2680,
    "szczÄĻÅĽ": 2681,
    "jaki": 2682,
    "dal": 2683,
    "siĠ": 2684,
    "Ġpyta": 2685,
    "nek": 2686,
    "cer": 2687,
    "kaÅ¼dyĠ": 2688,
    ",ĠczyĠ": 2689,
    "skar": 2690,
    "c.Ġ": 2691,
    "czypospoli": 2692,
    "Komunika": 2693,
    "goÅĽ": 2694,
    "caÅĤyĠ": 2695,
    "skÄħĠ": 2696,
    "Dzien": 2697,
    "Âłr.ĠNrĠ": 2698,
    "ÄĻ.": 2699,
    "odziĠ": 2700,
    "wymĠ": 2701,
    "Ġdoktor": 2702,
    "ener": 2703,
    "ulamin": 2704,
    "Kontak": 2705,
    "ĠSz": 2706,
    "szkod": 2707,
    "rot": 2708,
    "met": 2709,
    "ĠwykonaniaĠ": 2710,
    "komunika": 2711,
    "Ġpodob": 2712,
    "peÅĤni": 2713,
    "tego,Ġ": 2714,
    "ĠtychĠ": 2715,
    "urlop": 2716,
    "BezpieczeÅĦstwo": 2717,
    "Kontakt": 2718,
    "niÃ³": 2719,
    "jestĠtoĠ": 2720,
    "trzym": 2721,
    "mina": 2722,
    "eli": 2723,
    "8Ġ": 2724,
    "/2020": 2725,
    "nasĠ": 2726,
    "ĠmiÄĻdzyĠ": 2727,
    "zie": 2728,
    "gna": 2729,
    "ujÄħĠ": 2730,
    "absolutor": 2731,
    "absolutorium": 2732,
    "AleĠ": 2733,
    "siebie": 2734,
    "amy": 2735,
    "dzieÅĦ": 2736,
    "opi": 2737,
    "kle": 2738,
    "di": 2739,
    "nadz": 2740,
    "szel": 2741,
    "ÅĽrÃ³d": 2742,
    "ĠwÅĤaÅĽci": 2743,
    "miejsceĠ": 2744,
    "ite": 2745,
    "Gastronom": 2746,
    "cÃ³wĠ": 2747,
    "piÄĻ": 2748,
    "gdzie": 2749,
    "kart": 2750,
    "okrÄĻ": 2751,
    "wskaz": 2752,
    "chunk": 2753,
    "zwiÄħz": 2754,
    "ĠpaÅĦstw": 2755,
    "60": 2756,
    "54": 2757,
    "nych.": 2758,
    "moÅ¼li": 2759,
    "Prezy": 2760,
    "ogÃ³lnegoĠ": 2761,
    "Cy": 2762,
    "Komunikacja": 2763,
    "Gastronomia": 2764,
    "oczyĠ": 2765,
    "âĢ¦Ġ": 2766,
    "Ġprowa": 2767,
    "wÃ³jĠ": 2768,
    "ejm": 2769,
    "wiet": 2770,
    "Ġ417": 2771,
    "NajbliÅ¼szeĠokolice": 2772,
    "Zakup": 2773,
    "Zakupy": 2774,
    "Äĩ,ĠÅ¼eĠ": 2775,
    "emuĠ": 2776,
    "Stra": 2777,
    "Ġpomo": 2778,
    "Âłr.": 2779,
    "Ġmiejscow": 2780,
    "ka.": 2781,
    "Iz": 2782,
    "KolejÄħ": 2783,
    "owanychĠ": 2784,
    "nosiĠ": 2785,
    "Mo": 2786,
    "dziÅĤ": 2787,
    "czejĠ": 2788,
    "dok": 2789,
    "cznyĠ": 2790,
    "),": 2791,
    "/200": 2792,
    ")ĠnrĠ966/201": 2793,
    "ÄĻĠiĠ": 2794,
    "mal": 2795,
    "aĠsiÄĻĠ": 2796,
    "noÅĽciÄħ": 2797,
    "nieĠnaĠ": 2798,
    "lategoĠ": 2799,
    "bowie": 2800,
    "III": 2801,
    "kurator": 2802,
    "lajÄħceĠ": 2803,
    "Kategoria:Polska": 2804,
    "Nauka": 2805,
    "mut": 2806,
    "ryn": 2807,
    "aĠdoĠ": 2808,
    "spe": 2809,
    "jas": 2810,
    "tÃ³w": 2811,
    "nieĠmi": 2812,
    "remĠ": 2813,
    "opis": 2814,
    "czĠ": 2815,
    "qu": 2816,
    "lokal": 2817,
    "Kontro": 2818,
    ",Ġs.Âł1": 2819,
    "Praca": 2820,
    "Ġ+": 2821,
    "ĠtakÅ¼eĠ": 2822,
    "nÄħÅĤĠ": 2823,
    "CzyĠ": 2824,
    "owÄħĠ": 2825,
    "aryĠ": 2826,
    "Ġposta": 2827,
    "mod": 2828,
    "nieĠprzy": 2829,
    "ĠzakÅĤad": 2830,
    "lotnisk": 2831,
    "Granicz": 2832,
    "Ġpracy": 2833,
    "ziÄħ": 2834,
    ",Ġgdy": 2835,
    "szkole": 2836,
    "czÄĻstoĠ": 2837,
    "ĠmiÅĤ": 2838,
    "nieruchom": 2839,
    "Ġwe": 2840,
    "owinie": 2841,
    "natu": 2842,
    "yn": 2843,
    "takÅ¼e": 2844,
    "zakÅĤad": 2845,
    "wykona": 2846,
    "aÅĤÄħcz": 2847,
    "EJ": 2848,
    "Prokuratu": 2849,
    "woker": 2850,
    "przedĠ": 2851,
    "iedyĠ": 2852,
    "ti": 2853,
    "zwal": 2854,
    "Ġpre": 2855,
    "szÄħĠ": 2856,
    "Mie": 2857,
    "szÄħ": 2858,
    "ner": 2859,
    "ura": 2860,
    "ĠlipcaĠ": 2861,
    "kultu": 2862,
    "urwoker": 2863,
    "onÄħĠ": 2864,
    "De": 2865,
    "nÄĻĠ": 2866,
    "skiego": 2867,
    "Ġpowietrz": 2868,
    "iadom": 2869,
    "grup": 2870,
    "1990": 2871,
    "niniej": 2872,
    "\"Ġ(": 2873,
    "siÄĻcyĠ": 2874,
    "godzi": 2875,
    "uczu": 2876,
    "ĠwiÄĻksz": 2877,
    "nej,Ġ": 2878,
    "inneĠ": 2879,
    "5Ġ": 2880,
    "nictwaĠ": 2881,
    ",Ġs.Ġ": 2882,
    "rokuĠ": 2883,
    "aĠpo": 2884,
    "sa": 2885,
    "czor": 2886,
    "listop": 2887,
    "ĠwspÃ³ÅĤ": 2888,
    "fa": 2889,
    "liczb": 2890,
    "Â§Ġ": 2891,
    "ĠPol": 2892,
    "prawidÅĤ": 2893,
    "woĠ": 2894,
    "rzuci": 2895,
    "ĠpodĠ": 2896,
    ".ĠJak": 2897,
    "szuka": 2898,
    "obywa": 2899,
    ")ĠiĠ": 2900,
    "funkcjiĠ": 2901,
    "TrybunaÅĤ": 2902,
    "uchylajÄħceĠ": 2903,
    "ple": 2904,
    "aĠsiÄĻ": 2905,
    "pÅĤat": 2906,
    "byt": 2907,
    "jÄħcej": 2908,
    "listĠ": 2909,
    "Ġdotycz": 2910,
    "33": 2911,
    "âĢľ": 2912,
    "cia": 2913,
    "byliĠ": 2914,
    "tecz": 2915,
    "uszcz": 2916,
    "tery": 2917,
    "moÅ¼liw": 2918,
    "agen": 2919,
    "roczneĠ": 2920,
    "Charakterystyka": 2921,
    "drze": 2922,
    "ni,Ġ": 2923,
    ".ĠTak": 2924,
    "bawi": 2925,
    "Ġwypad": 2926,
    "czyÄĩ": 2927,
    "przykÅĤad": 2928,
    "Dz.ĠU": 2929,
    "rÃ³wn": 2930,
    "o.": 2931,
    "WewnÄĻtrz": 2932,
    "n.": 2933,
    "Ziemi": 2934,
    "uczel": 2935,
    "budÅ¼etuĠogÃ³lnegoĠ": 2936,
    "mia": 2937,
    "ludzi": 2938,
    "Ġtwo": 2939,
    "moĠ": 2940,
    "niejsze": 2941,
    "ÅĦ,Ġ": 2942,
    "ĠzastÄĻp": 2943,
    "ĠzÅĤotych": 2944,
    "Rzeczypospoli": 2945,
    "fak": 2946,
    "(WE": 2947,
    "âĺ": 2948,
    "Ġdaw": 2949,
    "iĠnaĠ": 2950,
    "charakte": 2951,
    "stud": 2952,
    "dzial": 2953,
    "jaw": 2954,
    "gmi": 2955,
    "finansowych": 2956,
    "funkcjonowaniuĠ": 2957,
    "owegoĠdotycz": 2958,
    "zupeÅĤ": 2959,
    "Ġpar": 2960,
    "rÄĻkÄĻ": 2961,
    "bied": 2962,
    "aÅĤĠsiÄĻĠ": 2963,
    "handl": 2964,
    "mÄĻ": 2965,
    "ciebie": 2966,
    "sia": 2967,
    "Ty": 2968,
    "Ġwart": 2969,
    "ĠsiÄĻĠdoĠ": 2970,
    "decyz": 2971,
    "ĠsprawozdanieĠ": 2972,
    "9-": 2973,
    "Kategoria:S": 2974,
    "ĠÅ¹rÃ³dÅĤo:Ġs": 2975,
    "WartoĠzobaczy": 2976,
    "WartoĠzobaczyÄĩ": 2977,
    "Å¼Äħd": 2978,
    "lÄħ": 2979,
    "czÄħt": 2980,
    "sz,Ġ": 2981,
    "sieĠ": 2982,
    "liczbyĠ": 2983,
    ".ĠNieĠ": 2984,
    "kty": 2985,
    "mocyĠ": 2986,
    "76": 2987,
    "regional": 2988,
    "Cent": 2989,
    "wierdz": 2990,
    "Å¼yĠGranicz": 2991,
    "thumb": 2992,
    "thumb|": 2993,
    ")ĠâĢĵ": 2994,
    "Festiwale,Ġimpre": 2995,
    "Festiwale,Ġimprezy": 2996,
    "obraz": 2997,
    "podob": 2998,
    "nemĠ": 2999,
    "fan": 3000,
    "kur": 3001,
    "Dzi": 3002,
    "oty": 3003,
    "oznacz": 3004,
    "ychowaw": 3005,
    "owanieĠdoĠ": 3006,
    "owoÅĽciĠ": 3007,
    "absolutoriumĠz": 3008,
    "jegoĠart.Âł": 3009,
    "Dz.U.ĠC": 3010,
    "jmu": 3011,
    "imi": 3012,
    "dyrektor": 3013,
    "lĠ": 3014,
    "spie": 3015,
    "Ġspy": 3016,
    "powiada": 3017,
    "ciu": 3018,
    "staÅĤaĠ": 3019,
    "kosz": 3020,
    "ug": 3021,
    "kuĠz": 3022,
    "lega": 3023,
    "publicz": 3024,
    "pozy": 3025,
    "bad": 3026,
    "nastÄĻpu": 3027,
    "ĠzasadĠ": 3028,
    "UROP": 3029,
    "bym": 3030,
    "âĢ¦čĠ": 3031,
    "anie": 3032,
    "ĠmiaÅĤ": 3033,
    "Å¼ejĠ": 3034,
    "nachĠ": 3035,
    "Å¼ycieĠ": 3036,
    "noÅĽci,Ġ": 3037,
    "krÄĻ": 3038,
    "stawie": 3039,
    "emery": 3040,
    "ĠskÅĤad": 3041,
    "ĠwrzeÅĽniaĠ": 3042,
    "ĠpaÅºdziernikaĠ": 3043,
    "ĠdecyzjiĠ": 3044,
    "ozna": 3045,
    "inform": 3046,
    "UROPEJ": 3047,
    "UROPEJSK": 3048,
    "ĠteĠ": 3049,
    "rzekÅĤĠ": 3050,
    "prz": 3051,
    "odu": 3052,
    "PoĠ": 3053,
    "Bra": 3054,
    "brzmie": 3055,
    "atycz": 3056,
    "Ġzakresie": 3057,
    "plan": 3058,
    "90": 3059,
    "kandy": 3060,
    "ĠTraktatuĠ": 3061,
    "âĢĵĠmiastoĠwĠ": 3062,
    "Nocleg": 3063,
    "czter": 3064,
    "ĠzĠd": 3065,
    "raca": 3066,
    "ÄĻdzi": 3067,
    "li,Ġ": 3068,
    "czasemĠ": 3069,
    ",ĠÅ¼eĠw": 3070,
    "rok": 3071,
    ".ĠJest": 3072,
    "miejscaĠ": 3073,
    "ĠpÅĤa": 3074,
    "waÄĩ": 3075,
    ".ĠPrzy": 3076,
    "szaÅĤ": 3077,
    "ĠÂłÂł": 3078,
    "nyĠob": 3079,
    "urzÄĻd": 3080,
    "przyja": 3081,
    "By": 3082,
    "ÄħĠwĠ": 3083,
    "owanegoĠ": 3084,
    "part": 3085,
    "rzeczywi": 3086,
    "owaniu": 3087,
    "Jadwi": 3088,
    "europej": 3089,
    ")ĠâĢĵĠ": 3090,
    "*Ġ": 3091,
    "ĠsobieĠ": 3092,
    "jakbyĠ": 3093,
    "ucie": 3094,
    "czyna": 3095,
    "ĠmyÅĽl": 3096,
    "ToĠ": 3097,
    "enĠ": 3098,
    "Å¼aĠ": 3099,
    "ĠsÄħĠ": 3100,
    "uni": 3101,
    "organizacyj": 3102,
    "ĠTraktatuĠoĠ": 3103,
    "Ã©": 3104,
    "Ġwyd": 3105,
    "poko": 3106,
    "ĠsiÄĻĠz": 3107,
    "Ġtam": 3108,
    "Ġzwy": 3109,
    "Ġprzeciw": 3110,
    "Ja": 3111,
    "2,Ġ": 3112,
    "nast": 3113,
    "iemĠ": 3114,
    "saĠ": 3115,
    "Å¼aÅĤ": 3116,
    "ÄĻĠnaĠ": 3117,
    "czasie": 3118,
    "iĠS": 3119,
    "kad": 3120,
    "38": 3121,
    "administracjiĠ": 3122,
    "lacÃ³w": 3123,
    "nieĠtylkoĠ": 3124,
    "ied": 3125,
    "bezpie": 3126,
    "!ĠâĢĶ": 3127,
    "ÅĽmiertel": 3128,
    "iar": 3129,
    "jÄĻciaĠ": 3130,
    "edy": 3131,
    "styczniaĠ": 3132,
    "au": 3133,
    "(UE)Ġ": 3134,
    "Ã¶": 3135,
    "Ã¡": 3136,
    "chc": 3137,
    "ty,Ġ": 3138,
    "przeciw": 3139,
    "Ġwod": 3140,
    "Ġtakie": 3141,
    "Ġwszystkie": 3142,
    "ude": 3143,
    "jÄħcejĠ": 3144,
    "ofiar": 3145,
    "44": 3146,
    "owa.": 3147,
    "ĠEUROPEJSK": 3148,
    "ĠOpis:ĠdoĠ": 3149,
    "ĠÅ¹rÃ³dÅĤo:ĠlistĠ": 3150,
    "ĠÅ¹rÃ³dÅĤo:ĠlistĠnrĠ": 3151,
    "ludziĠ": 3152,
    "szed": 3153,
    "ĠpiÄĻk": 3154,
    "zdr": 3155,
    ",ĠktÃ³rzyĠ": 3156,
    "Ġwal": 3157,
    "ajeĠ": 3158,
    "iĠwĠ": 3159,
    "kamie": 3160,
    "swojeĠ": 3161,
    "agaĠ": 3162,
    "yĠzĠ": 3163,
    "szeniaĠ": 3164,
    "Ġsystem": 3165,
    "ÅºrÃ³d": 3166,
    "Li": 3167,
    "80": 3168,
    "osiÄħg": 3169,
    "Obrachunkow": 3170,
    "Jan": 3171,
    "âĨĳ": 3172,
    "jcie": 3173,
    "Pie": 3174,
    "ludzie": 3175,
    "bardziejĠ": 3176,
    "ocze": 3177,
    "zam": 3178,
    "sobieĠ": 3179,
    "razyĠ": 3180,
    "isz": 3181,
    "tka": 3182,
    "imieni": 3183,
    "zostaÅĤ": 3184,
    ".ĠJeÅĽliĠ": 3185,
    "reli": 3186,
    "czenieĠ": 3187,
    "KomisjaĠ": 3188,
    "196": 3189,
    "ng": 3190,
    "ENT": 3191,
    "--": 3192,
    "teat": 3193,
    "ĠwszystkichĠ": 3194,
    "terazĠ": 3195,
    "scy": 3196,
    "rowin": 3197,
    "jemyĠ": 3198,
    "my,Ġ": 3199,
    "ÄĩĠiĠ": 3200,
    "dziew": 3201,
    "raÅ¼e": 3202,
    "osen": 3203,
    "jegoĠart.Ġ": 3204,
    "bakteri": 3205,
    ".ÂłÂł": 3206,
    "wĠd": 3207,
    "uÅĽci": 3208,
    "bÄħdÅº": 3209,
    "oczy": 3210,
    "nyĠiĠ": 3211,
    "ja,Ġ": 3212,
    ".ĠZa": 3213,
    "jech": 3214,
    "widzi": 3215,
    "ĠsÅĤu": 3216,
    "Ġzawie": 3217,
    "Tom": 3218,
    "pÅĤyw": 3219,
    "ameryka": 3220,
    "Ġprodu": 3221,
    "rumĠ": 3222,
    "9-00": 3223,
    "nymĠwÄĻzÅĤemĠdrogowym.": 3224,
    "owania": 3225,
    "Ġpis": 3226,
    "rami": 3227,
    "czenie": 3228,
    "oby": 3229,
    "lew": 3230,
    "onor": 3231,
    "ÄħdĠ": 3232,
    "ĠmÄĻ": 3233,
    "twoĠ": 3234,
    "Ġtytu": 3235,
    "KontroliĠ": 3236,
    "wers": 3237,
    "LAM": 3238,
    "wÂł": 3239,
    "naĠwy": 3240,
    "neĠiĠ": 3241,
    "chwy": 3242,
    "ĠpoÅĽ": 3243,
    "NajwyÅ¼": 3244,
    "str": 3245,
    "dnieĠ": 3246,
    "staro": 3247,
    "arzÄħdz": 3248,
    "naĠpodstawieĠ": 3249,
    "RzeczypospolitejĠ": 3250,
    "ĠmajÄħcych": 3251,
    "urzÄħd": 3252,
    "Kat": 3253,
    "elekt": 3254,
    "chodzeniaĠ": 3255,
    "ĠzastosowanieĠdoĠ": 3256,
    "egulamin": 3257,
    "tĠlotniczyĠ": 3258,
    "owanaĠ": 3259,
    "Å¼ebyĠ": 3260,
    "ĠpiÄĻ": 3261,
    "ktÃ³raĠ": 3262,
    "dw": 3263,
    "Ġzada": 3264,
    "?ĠâĢĶĠspy": 3265,
    "ĠgdyĠ": 3266,
    "ĠtamĠ": 3267,
    "s,Ġ": 3268,
    "nikiĠ": 3269,
    "mÄĻÅ¼": 3270,
    "kierun": 3271,
    "lece": 3272,
    "ĠspoÅĤecz": 3273,
    "Ġplan": 3274,
    "45": 3275,
    "okreÅĽlonych": 3276,
    "organÃ³wĠ": 3277,
    "eÅĤĠ": 3278,
    "ku.": 3279,
    "EM": 3280,
    "Funk": 3281,
    "eneral": 3282,
    "\"Ġ": 3283,
    "UniiĠEuropejskiej,": 3284,
    "Ser": 3285,
    ",ĠjakbyĠ": 3286,
    "koniecz": 3287,
    "byÅĽ": 3288,
    "ster": 3289,
    "Lu": 3290,
    "atyw": 3291,
    "zarzÄħd": 3292,
    "âĢĿ.": 3293,
    "wĠsprawie": 3294,
    "informacjiĠ": 3295,
    "/s": 3296,
    "âĢĻ": 3297,
    "ta,Ġ": 3298,
    "latĠ": 3299,
    "mieĠ": 3300,
    "wiz": 3301,
    "Ġust.Ġ": 3302,
    "prawĠWewnÄĻtrz": 3303,
    "PARLAM": 3304,
    "PARLAMENT": 3305,
    "ĠOpis:Ġ": 3306,
    "ĠiĠw": 3307,
    "dÅĤu": 3308,
    "tÃ³": 3309,
    "skÅĤad": 3310,
    "ĠwiÄĻcejĠ": 3311,
    "siÄħc": 3312,
    "trzebaĠ": 3313,
    "ari": 3314,
    "ĠsiÄĻĠnaĠ": 3315,
    "choÄĩ": 3316,
    "opieroĠ": 3317,
    "rej": 3318,
    "prawiedliw": 3319,
    "ieni": 3320,
    "net": 3321,
    "vi": 3322,
    "imieniaĠ": 3323,
    "bada": 3324,
    "pisyĠ": 3325,
    "47": 3326,
    "ĠsÅĤuÅ¼byĠ": 3327,
    "rekon": 3328,
    "patrz": 3329,
    ",ĠkiedyĠ": 3330,
    "tur": 3331,
    "giĠ": 3332,
    "Ã³rĠ": 3333,
    "stemĠ": 3334,
    "49": 3335,
    "fik": 3336,
    "Å¼on": 3337,
    "Ġmet": 3338,
    "anej": 3339,
    "nieĠzost": 3340,
    "He": 3341,
    "ĠzasadĠfinansowych": 3342,
    "2018/": 3343,
    "3/2014": 3344,
    "film": 3345,
    "utobusem": 3346,
    "âĺı": 3347,
    "âĺıĠ+": 3348,
    "ÅĤosze": 3349,
    "mate": 3350,
    "towarzy": 3351,
    ",ĠgdzieĠ": 3352,
    "ÄħĠz": 3353,
    "cach": 3354,
    "nach": 3355,
    "potrzeb": 3356,
    "karb": 3357,
    "zwol": 3358,
    "klu": 3359,
    "ĠzakresieĠ": 3360,
    "a,": 3361,
    "eksp": 3362,
    "kontroliĠ": 3363,
    "[]": 3364,
    "jÅĽci": 3365,
    "uÅĽmiech": 3366,
    "âĢĶĠO": 3367,
    "noÅĽciĠiĠ": 3368,
    "Ġpunkt": 3369,
    "szan": 3370,
    "zad": 3371,
    "yĠwĠ": 3372,
    "aÅĤoĠsiÄĻ": 3373,
    "sÅĤa": 3374,
    "aĠwy": 3375,
    "otwar": 3376,
    ",Ġprzy": 3377,
    "rozu": 3378,
    "tekĠ": 3379,
    "nazw": 3380,
    "weĠ": 3381,
    "zew": 3382,
    "skazu": 3383,
    "endan": 3384,
    "ÅĽniĠ": 3385,
    "olu": 3386,
    "4Ġ": 3387,
    "celuĠ": 3388,
    "rÃ³wnowaÅ¼": 3389,
    "s.Ġ": 3390,
    "nauczycie": 3391,
    "Ġtro": 3392,
    "ĠwÅĤa": 3393,
    ",Ġi": 3394,
    "dzeniaĠ": 3395,
    "aga": 3396,
    "stwa": 3397,
    "uszaĠ": 3398,
    "budow": 3399,
    "stwie": 3400,
    "tani": 3401,
    "gz": 3402,
    "akÅĤad": 3403,
    "ĠpomocyĠ": 3404,
    "atkow": 3405,
    "caÅĤkowi": 3406,
    "fika": 3407,
    "EC": 3408,
    "Kategoria:W": 3409,
    "nami": 3410,
    "Ġzmar": 3411,
    "ejÅĽci": 3412,
    "stoli": 3413,
    "Ju": 3414,
    "gÄĻ": 3415,
    "czer": 3416,
    "Ġtwarz": 3417,
    "nieĠjest": 3418,
    "ĠwiÄĻcej": 3419,
    "iemiÄĻ": 3420,
    "ps": 3421,
    "komu": 3422,
    "wicz": 3423,
    ",ĠS": 3424,
    "Ros": 3425,
    "iastaĠ": 3426,
    "stacjaĠ": 3427,
    "rodza": 3428,
    "oĠktÃ³rychĠmowaĠwĠ": 3429,
    "y,": 3430,
    "rodzaj": 3431,
    "KoÅĽci": 3432,
    "/us": 3433,
    "twar": 3434,
    "lar": 3435,
    "unku": 3436,
    "dam": 3437,
    "BÃ³g": 3438,
    "niaÅĤ": 3439,
    "cywil": 3440,
    "ZiemiĠ": 3441,
    "Ġzawod": 3442,
    "ne.": 3443,
    "obiekt": 3444,
    "Mich": 3445,
    "sekwen": 3446,
    "/usr": 3447,
    "(\"": 3448,
    "Autobusem": 3449,
    "Wyjazd": 3450,
    "Ġsek": 3451,
    "dwaĠ": 3452,
    "prawd": 3453,
    "gdy": 3454,
    "lemĠ": 3455,
    ".ĠDoĠ": 3456,
    "spar": 3457,
    "zapew": 3458,
    "mianyĠ": 3459,
    "7Ġ": 3460,
    "Ġproble": 3461,
    "u,": 3462,
    "nadzie": 3463,
    "Ġmin": 3464,
    "nagrod": 3465,
    "kocha": 3466,
    "uĠd": 3467,
    "sil": 3468,
    "ogrom": 3469,
    "59": 3470,
    "ho": 3471,
    "lite": 3472,
    "niaĠiĠ": 3473,
    "najmniejĠ": 3474,
    "tykaĠ": 3475,
    "ji": 3476,
    "ĠwĠpo": 3477,
    "odpowiedzial": 3478,
    "funkcjonariu": 3479,
    "em.": 3480,
    "tt": 3481,
    "m.in": 3482,
    "lotniskoĠwĠ": 3483,
    "stara": 3484,
    "ajÄħĠ": 3485,
    "ktora": 3486,
    "chci": 3487,
    "dziesiÄĻ": 3488,
    "razemĠ": 3489,
    "ode": 3490,
    "ÅĽla": 3491,
    "iĠprze": 3492,
    "konywa": 3493,
    "rozwi": 3494,
    "dol": 3495,
    "0,": 3496,
    "oneĠwĠ": 3497,
    "onom": 3498,
    "\")": 3499,
    "ojciecĠ": 3500,
    "oÅĽciÄħ": 3501,
    "ria": 3502,
    "wÃ³chĠ": 3503,
    "lekar": 3504,
    "zem": 3505,
    "anÄħ": 3506,
    "ÅĤecze": 3507,
    "cjÄħĠ": 3508,
    "siedzi": 3509,
    "ĠpktĠ": 3510,
    "ziom": 3511,
    "zyj": 3512,
    "hare": 3513,
    "imieninyĠob": 3514,
    "urwokertoĠ": 3515,
    "zostaÅĤaĠ": 3516,
    "pÃ³Åº": 3517,
    "led": 3518,
    "dzieciĠ": 3519,
    "ban": 3520,
    "honor": 3521,
    "gĠ": 3522,
    "ĠtÄĻ": 3523,
    "czyÄĩĠ": 3524,
    "skrzy": 3525,
    "99": 3526,
    "ÅĤuĠ": 3527,
    "/usr/s": 3528,
    "/usr/share": 3529,
    "/usr/share/man": 3530,
    "ORF": 3531,
    "âĢĵĠmiastoĠ": 3532,
    "dzÄħc": 3533,
    "pÅĤ": 3534,
    "chwil": 3535,
    "razem": 3536,
    "Tu": 3537,
    "len": 3538,
    "zÄĻ": 3539,
    "!ĠP": 3540,
    "ĠwĠtymĠ": 3541,
    "ÅĦskiegoĠ": 3542,
    "dro": 3543,
    "ĠsÅĤoÅĦ": 3544,
    "chow": 3545,
    "ĠU": 3546,
    "sÄħd": 3547,
    "Ġsku": 3548,
    "stanowiĠ": 3549,
    "log": 3550,
    "/usr/share/man/man": 3551,
    "nomular": 3552,
    "jm": 3553,
    "rem": 3554,
    "JaĠ": 3555,
    "obro": 3556,
    "nazwi": 3557,
    "opow": 3558,
    "dzyĠ": 3559,
    "szystkoĠ": 3560,
    "iÅĤ": 3561,
    "jednym": 3562,
    "Ã³wĠwĠ": 3563,
    "arg": 3564,
    "win": 3565,
    "krÃ³l": 3566,
    "nicaĠ": 3567,
    "Rad": 3568,
    "odniesie": 3569,
    "unda": 3570,
    "siÄĻbior": 3571,
    "naukow": 3572,
    "dopod": 3573,
    "matycz": 3574,
    "stacjaĠkolej": 3575,
    "Ġpr": 3576,
    "kapi": 3577,
    "ce,Ġ": 3578,
    "typ": 3579,
    "Ġwszystkich": 3580,
    "syn": 3581,
    "najmniej": 3582,
    "ZĠ": 3583,
    "uĠz": 3584,
    "ieniaĠ": 3585,
    "naĠrzecz": 3586,
    "kod": 3587,
    "56": 3588,
    "âĢŀÂł": 3589,
    "mas": 3590,
    "dostÄĻp": 3591,
    "lotniczymĠ": 3592,
    "Å¹rÃ³d": 3593,
    "ĠportemĠ": 3594,
    "iĠnie": 3595,
    "trud": 3596,
    "bry": 3597,
    "ĠdÅĤug": 3598,
    "ecz": 3599,
    "majÄħ": 3600,
    "waÄĩĠ": 3601,
    "alĠ": 3602,
    "decy": 3603,
    "skona": 3604,
    "Jed": 3605,
    "num": 3606,
    "temat": 3607,
    "ÅĦski,Ġ": 3608,
    "Dz.ĠU.ĠNrĠ": 3609,
    "42": 3610,
    "grunt": 3611,
    "/2020),": 3612,
    "tÄĻĠ": 3613,
    "raÅº": 3614,
    "dajeĠ": 3615,
    "ÄĩĠm": 3616,
    "Ġpe": 3617,
    "kolor": 3618,
    "tego": 3619,
    "wiat": 3620,
    "ĠwieleĠ": 3621,
    "ÅĤeÅĽ": 3622,
    "trw": 3623,
    "latachĠ": 3624,
    "kierow": 3625,
    "odaw": 3626,
    "4)": 3627,
    "ychczas": 3628,
    "ramachĠ": 3629,
    "ktyw": 3630,
    "PolskiĠ": 3631,
    "kandydat": 3632,
    "NA": 3633,
    "powin": 3634,
    "ch,ĠwĠ": 3635,
    ",ĠaĠpo": 3636,
    "?čĠ": 3637,
    "kolwie": 3638,
    "com": 3639,
    "nyĠw": 3640,
    "Sy": 3641,
    "a,ĠÅ¼eĠ": 3642,
    "ÄħÅ¼": 3643,
    "ĠswojeĠ": 3644,
    "Por": 3645,
    "ÅĤoni": 3646,
    "gÅĤa": 3647,
    "owych,Ġ": 3648,
    "zeĠm": 3649,
    "oneĠprzezĠ": 3650,
    "nie,": 3651,
    "instytu": 3652,
    "fes": 3653,
    "kons": 3654,
    "ĠwyrazyĠ": 3655,
    "ujeĠsiÄĻĠ": 3656,
    "ÂłâĢĿ": 3657,
    "cyjnych": 3658,
    "Ġsprawa": 3659,
    "budÅ¼etu": 3660,
    "gminyĠ": 3661,
    "zaleÅ¼": 3662,
    "53": 3663,
    "Ġsytua": 3664,
    "(A": 3665,
    "bakteriof": 3666,
    "najdujeĠsiÄĻ": 3667,
    "taÅĤĠ": 3668,
    "oĠdoĠ": 3669,
    "y,ĠaĠ": 3670,
    "nÄĻÅĤaĠ": 3671,
    "rab": 3672,
    "nieĠbyÅĤoĠ": 3673,
    "fran": 3674,
    "dÃ³w": 3675,
    "guĠ": 3676,
    "ÅĦcz": 3677,
    "skiemĠ": 3678,
    "skiego,Ġ": 3679,
    "miejsce": 3680,
    "Ġgodzin": 3681,
    "Ne": 3682,
    "muzy": 3683,
    "wĠart.Ġ": 3684,
    "Ġprojekt": 3685,
    "stÄħpie": 3686,
    "Stat": 3687,
    "inicj": 3688,
    "1046": 3689,
    "ry,Ġ": 3690,
    "ÅĽwiecie": 3691,
    "pas": 3692,
    "ÄĻĠw": 3693,
    "kwest": 3694,
    "hate": 3695,
    "kaĠiĠ": 3696,
    "jÄħcymĠ": 3697,
    "wojsk": 3698,
    "wÅĤas": 3699,
    ",ĠktÃ³re": 3700,
    "Niem": 3701,
    "jen": 3702,
    "i,ĠwĠ": 3703,
    "oĠwy": 3704,
    "liniiĠ": 3705,
    "ĠzĠdniaĠ18": 3706,
    "opÅĤat": 3707,
    "Fi": 3708,
    "produ": 3709,
    "Kategoria:B": 3710,
    "ĠportemĠlotniczymĠ": 3711,
    "We": 3712,
    ",ĠÅ¼eĠtoĠ": 3713,
    "niamiĠ": 3714,
    "wrÃ³ci": 3715,
    "uĠwĠ": 3716,
    "ÄħĠdoĠ": 3717,
    "rek": 3718,
    "ĠwszystkoĠ": 3719,
    "Ġdoku": 3720,
    ".ĠOd": 3721,
    "opat": 3722,
    "obejmu": 3723,
    "zrobi": 3724,
    "wiÄĻc": 3725,
    "end": 3726,
    "cznejĠ": 3727,
    "cÃ³r": 3728,
    "Ġkwiet": 3729,
    "obsÅĤug": 3730,
    "jednocz": 3731,
    "skaÅº": 3732,
    "niuĠdoĠ": 3733,
    "GÅĤÃ³w": 3734,
    "30.": 3735,
    "feren": 3736,
    "ĠprzestÄĻp": 3737,
    "ĠpolskiĠ": 3738,
    "2018/1046": 3739,
    "ĠwiÄĻc": 3740,
    "nÃ³w": 3741,
    "rowincjiĠ": 3742,
    ".ĠNaj": 3743,
    "Ġsier": 3744,
    "ciemĠ": 3745,
    "Å¼eÅĦ": 3746,
    "mÅĤod": 3747,
    "szlach": 3748,
    "Å¼yÅĤ": 3749,
    "skÄħ": 3750,
    "ic": 3751,
    "imyĠ": 3752,
    "rez": 3753,
    "owod": 3754,
    "Å¼ynie": 3755,
    "uzna": 3756,
    "mogÄħĠ": 3757,
    "ĠzastÄĻpujeĠsiÄĻ": 3758,
    "Ġwnio": 3759,
    "Wybor": 3760,
    "rozporzÄħdzenie": 3761,
    "mos": 3762,
    "rans": 3763,
    "2018Ġr.ĠwĠsprawie": 3764,
    "ĠÅ¹rÃ³dÅĤo:Ġsez": 3765,
    "drugie": 3766,
    "roku": 3767,
    "ĠmÃ³jĠ": 3768,
    "duÅ¼": 3769,
    "czÅĤowiek": 3770,
    "lit": 3771,
    "ÅĤaĠsiÄĻĠ": 3772,
    "dziÄĻkiĠ": 3773,
    "cznieĠ": 3774,
    "porzÄħd": 3775,
    "Å»y": 3776,
    "ĠwysokoÅĽciĠ": 3777,
    "Polskiej": 3778,
    "korzyst": 3779,
    "KomisjÄĻĠ": 3780,
    "entu": 3781,
    "LL": 3782,
    "eografi": 3783,
    "napis": 3784,
    "czek": 3785,
    "wyĠ": 3786,
    "upeÅĤ": 3787,
    "ÄĩĠzĠ": 3788,
    "Ġpier": 3789,
    ",Ġjakie": 3790,
    "zeĠs": 3791,
    "e,Ġ": 3792,
    "az": 3793,
    "waÅĤaĠ": 3794,
    "retar": 3795,
    "mor": 3796,
    "KrÃ³": 3797,
    "32": 3798,
    "ÅĽrodowi": 3799,
    "cji.": 3800,
    "oÅĽwiadcze": 3801,
    "ni.": 3802,
    "Å¹rÃ³dÅĤo": 3803,
    "awszyĠ": 3804,
    "Ġjest": 3805,
    "biegÅĤ": 3806,
    "byÅĤo": 3807,
    "naĠiĠ": 3808,
    "kiedy": 3809,
    "wieleĠ": 3810,
    "onymiĠ": 3811,
    "ĠtyĠ": 3812,
    "Ã³wĠnaĠ": 3813,
    "woÅĤa": 3814,
    "jednejĠ": 3815,
    "twie": 3816,
    "nocyĠ": 3817,
    "iat": 3818,
    "y:": 3819,
    "listopadaĠ": 3820,
    ")ĠnrĠ966/2012Âł": 3821,
    "OM": 3822,
    "âĢĵĠmiastoĠw": 3823,
    "robot": 3824,
    "ÄħcymĠ": 3825,
    "miaÅĤaĠ": 3826,
    "przeda": 3827,
    "âĢĶĠToĠ": 3828,
    "dziaÅĤaĠ": 3829,
    "car": 3830,
    "kilku": 3831,
    "ĠdniĠ": 3832,
    "bÅĤy": 3833,
    ".ĠMi": 3834,
    "uwa": 3835,
    "ÅĤom": 3836,
    "swojegoĠ": 3837,
    "czel": 3838,
    "autor": 3839,
    "a)": 3840,
    "bezpoÅĽredni": 3841,
    "okreÅĽlaĠ": 3842,
    "widu": 3843,
    "Ġ(W": 3844,
    "genom": 3845,
    "ĠpamiÄĻ": 3846,
    "BoĠ": 3847,
    "Pre": 3848,
    "najlep": 3849,
    "ony,Ġ": 3850,
    "Przed": 3851,
    "kÃ³w,Ġ": 3852,
    "imiÄĻĠ": 3853,
    "ĠdalejĠ": 3854,
    "Aust": 3855,
    "reĠ": 3856,
    "Ġprac": 3857,
    "Ġzapew": 3858,
    "osz": 3859,
    "onu": 3860,
    "ĠwyrazamiĠ": 3861,
    "granicyĠ": 3862,
    "ĠprzypadkuĠ": 3863,
    "dziaÅĤalnoÅĽciĠ": 3864,
    "Ban": 3865,
    "ultu": 3866,
    "Bud": 3867,
    "p.": 3868,
    "stre": 3869,
    "Funkcj": 3870,
    "Ger": 3871,
    "element": 3872,
    "ĠpierwszyĠ": 3873,
    "gÅĤÄĻb": 3874,
    "Ġprzyja": 3875,
    "ĠâĢĶĠ": 3876,
    "niachĠ": 3877,
    "pozna": 3878,
    "rozpoczÄĻ": 3879,
    "nieĠjestĠ": 3880,
    "deĠwszystki": 3881,
    "czasieĠ": 3882,
    "owymiĠ": 3883,
    "owy,Ġ": 3884,
    "Ġpoz": 3885,
    "leks": 3886,
    "kowe": 3887,
    "ĠwspÃ³l": 3888,
    "utw": 3889,
    "regu": 3890,
    "Polsce": 3891,
    "kontrol": 3892,
    "ca.": 3893,
    "koÅĤoĠ": 3894,
    "Ġpas": 3895,
    "kiej": 3896,
    "ĠpÃ³Åº": 3897,
    ",ĠwĠktÃ³rymĠ": 3898,
    "bal": 3899,
    "rach": 3900,
    "ĠToĠ": 3901,
    "wziÄĻ": 3902,
    "Ob": 3903,
    "owychĠiĠ": 3904,
    "gwia": 3905,
    "istoriaĠ": 3906,
    "nie:": 3907,
    "ckiĠ": 3908,
    "powietrz": 3909,
    "Âł000ĠzÅĤotych": 3910,
    "8,": 3911,
    "....": 3912,
    "Zjednocz": 3913,
    "nolog": 3914,
    "OT": 3915,
    "ZnajdujeĠsiÄĻ": 3916,
    "ktoÅĽ": 3917,
    "aĠzĠ": 3918,
    "Å¼dÅ¼": 3919,
    "rusz": 3920,
    "piÄĻk": 3921,
    "Cor": 3922,
    "oÅĽciÄħĠ": 3923,
    "Ġdop": 3924,
    "umar": 3925,
    "niezna": 3926,
    "podĠ": 3927,
    ",ĠbyĠ": 3928,
    "Ġpowod": 3929,
    "dzie,Ġ": 3930,
    "obecĠ": 3931,
    "czÄĻÅĽci": 3932,
    "organiz": 3933,
    "yĠzaĠ": 3934,
    "ckiegoĠ": 3935,
    "ganiaĠ": 3936,
    "ustawie": 3937,
    ",Ġpoz.Ġ1": 3938,
    "uÅ¼ytkow": 3939,
    "Ġdeleg": 3940,
    "ml": 3941,
    "(UE)ĠnrĠ12": 3942,
    "obil": 3943,
    "rus": 3944,
    "NajbliÅ¼szym": 3945,
    "t,Ġ": 3946,
    "jrze": 3947,
    "oĠza": 3948,
    "Ġznaj": 3949,
    "kiem,Ġ": 3950,
    "obszar": 3951,
    "drug": 3952,
    "dzÄĻ": 3953,
    "Å¼ar": 3954,
    "bohate": 3955,
    "ÅĤam": 3956,
    "naÅĤĠ": 3957,
    "sceĠ": 3958,
    "Czy": 3959,
    "stawia": 3960,
    "przedstawi": 3961,
    "Rz": 3962,
    "cieleĠ": 3963,
    "termin": 3964,
    "otrzymujeĠ": 3965,
    "1,Ġ": 3966,
    "ĠprawaĠ": 3967,
    "fundu": 3968,
    "realiz": 3969,
    "dentaĠ": 3970,
    "Zna": 3971,
    "rozporzÄħdzenieĠRadyĠ": 3972,
    "atak": 3973,
    "heĠ": 3974,
    "Ġ(WD)": 3975,
    "ÂłÂłÂłÂł": 3976,
    "wÅĤaÅĽci": 3977,
    "Ġtrud": 3978,
    ".ĠAĠ": 3979,
    "odd": 3980,
    "osÅĤ": 3981,
    "ajÄħcĠ": 3982,
    "dniĠ": 3983,
    "eÅĽ": 3984,
    "naszegoĠ": 3985,
    "DziÄĻ": 3986,
    "opar": 3987,
    "jakÄħ": 3988,
    "kaÅ¼degoĠ": 3989,
    "Ġzabaw": 3990,
    "instru": 3991,
    "tyka": 3992,
    "bel": 3993,
    "ĠpoÅĤoÅ¼": 3994,
    "fir": 3995,
    "Ġprzygot": 3996,
    "jednostkiĠ": 3997,
    "Funkcjonari": 3998,
    "ĠzostaÅĤ": 3999,
    "WP": 4000,
    ",ĠjakoĠmiejsceĠ": 4001,
    "ÅĽmierciĠwskaz": 4002,
    "ÅĽmierciĠwskazanoĠ": 4003,
    "dobrze": 4004,
    "mĠiĠ": 4005,
    "unkiĠ": 4006,
    "ÅĤĠgoĠ": 4007,
    ",ĠwiÄĻ": 4008,
    "brzym": 4009,
    "wierz": 4010,
    "ÅĤodzie": 4011,
    "niego": 4012,
    "byÅĽmyĠ": 4013,
    "ĠwiÄĻcĠ": 4014,
    "cznie": 4015,
    "rys": 4016,
    "rup": 4017,
    "nal": 4018,
    "jÄħĠsiÄĻĠ": 4019,
    "KtoĠ": 4020,
    "OdĠ": 4021,
    "Å»e": 4022,
    "religi": 4023,
    "ÅĦskiej": 4024,
    "NrĠ": 4025,
    "granic": 4026,
    "ĠRoz": 4027,
    "termi": 4028,
    "szczegÃ³ÅĤ": 4029,
    "ĠwojewÃ³dz": 4030,
    "onow": 4031,
    ".0": 4032,
    "77": 4033,
    "10-": 4034,
    "kaweĠ": 4035,
    "WspÃ³l": 4036,
    "ĠzĠ11.12.": 4037,
    "Autor:Ġ": 4038,
    "sÅĤowaĠ": 4039,
    "dziÅĽ": 4040,
    "mil": 4041,
    "ktÃ³rym": 4042,
    "niebie": 4043,
    "sÅĤoÅĦ": 4044,
    "oĠpo": 4045,
    "ÅĤÃ³": 4046,
    "cisk": 4047,
    "ÅĤaÅĦ": 4048,
    "Å¼oÅĤnierzyĠ": 4049,
    "cud": 4050,
    "rodzinyĠ": 4051,
    "uro": 4052,
    "48": 4053,
    "Å¼a": 4054,
    "doku": 4055,
    "omet": 4056,
    "sen": 4057,
    "niÄĻciaĠ": 4058,
    ".ĠPro": 4059,
    "doĠprze": 4060,
    "projekt": 4061,
    "kcjiĠ": 4062,
    "Lo": 4063,
    "Ġprote": 4064,
    "katoli": 4065,
    "Dz.U.ĠCĠ417": 4066,
    "Dz.U.ĠCĠ417ĠzĠ11.12.": 4067,
    ",Ġur.Ġ19": 4068,
    "mieni": 4069,
    "anÄħĠ": 4070,
    "anymĠ": 4071,
    "Gar": 4072,
    "inyĠ": 4073,
    "uk": 4074,
    "jdzie": 4075,
    "lec": 4076,
    "a,ĠaĠ": 4077,
    "Piot": 4078,
    "jestemĠ": 4079,
    "czeka": 4080,
    "rac": 4081,
    "rzecze": 4082,
    "bÄĻdÄħ": 4083,
    "najwyÅ¼": 4084,
    "caleĠ": 4085,
    "arÃ³w": 4086,
    "wojuĠ": 4087,
    "ÅĤoÅ¼e": 4088,
    "oraĠ": 4089,
    "Ġpotrzeb": 4090,
    "zachod": 4091,
    "zmienia": 4092,
    "5)": 4093,
    "ami.": 4094,
    "Ġprogram": 4095,
    "prawidÅĤowoÅĽciĠ": 4096,
    "ÅĽw": 4097,
    "li.": 4098,
    "historycz": 4099,
    "ochodem": 4100,
    "szak": 4101,
    "obu": 4102,
    "ÅĤĠdoĠ": 4103,
    "anejĠ": 4104,
    "âĢĶĠP": 4105,
    "ĠjestĠ": 4106,
    "mam": 4107,
    "Ġzrobi": 4108,
    "ĠmÅĤod": 4109,
    "dzieÄĩĠ": 4110,
    "Ġdrugie": 4111,
    "pÃ³ÅĤ": 4112,
    "wÃ³ch": 4113,
    "rudni": 4114,
    "szÄĻĠ": 4115,
    "inÅ¼ynie": 4116,
    "umoÅ¼li": 4117,
    "tomiast": 4118,
    "standar": 4119,
    "broj": 4120,
    "legal": 4121,
    "t.": 4122,
    "atmos": 4123,
    "ĠpochodzeniaĠ": 4124,
    "ĠZdr": 4125,
    "reÅ¼y": 4126,
    "ciÄĻĠ": 4127,
    "dziesiÄħ": 4128,
    "cachĠ": 4129,
    "niÃ³sÅĤ": 4130,
    "ĠsiÄĻĠwĠ": 4131,
    "Ġwojsk": 4132,
    "mieszkaÅĦ": 4133,
    "strzym": 4134,
    "imoĠ": 4135,
    "cÄħĠ": 4136,
    "lacjiĠ": 4137,
    "ote": 4138,
    "ĠwĠs": 4139,
    "Ġmod": 4140,
    "JeÅ¼eliĠ": 4141,
    "oÅĽci.": 4142,
    "ustawyĠoĠ": 4143,
    "PolskiejĠ": 4144,
    "cy.": 4145,
    "55": 4146,
    "tanisÅĤaw": 4147,
    "ST": 4148,
    "limatĠ": 4149,
    "âĶ": 4150,
    "Statkiem": 4151,
    "deĠ": 4152,
    "chwilÄĻ": 4153,
    "Ã³gÅĤĠ": 4154,
    "Ġpust": 4155,
    "tÄħĠ": 4156,
    ",ĠÅ¼eĠwĠ": 4157,
    "idzie": 4158,
    "ĠdÅĤu": 4159,
    "iszpa": 4160,
    "nÃ³wĠ": 4161,
    "oÅĽci,Ġ": 4162,
    "siÄĻĠod": 4163,
    "stu": 4164,
    "iÄĻĠ": 4165,
    "miar": 4166,
    "ĠwaÅ¼": 4167,
    "tach": 4168,
    "posa": 4169,
    "przypad": 4170,
    "Pom": 4171,
    "twa": 4172,
    "radyĠ": 4173,
    "bowiemĠ": 4174,
    "ciÄħguĠ": 4175,
    "odniesieniuĠdoĠ": 4176,
    "StraÅ¼yĠGranicz": 4177,
    "LI": 4178,
    ".Ġ(": 4179,
    "przewodnicz": 4180,
    "dopodob": 4181,
    "operacjiĠ": 4182,
    "rozporzÄħdzenieĠdeleg": 4183,
    "owaneĠKomisjiĠ": 4184,
    "ransportĠ": 4185,
    "Samochodem": 4186,
    "utwor": 4187,
    "trzyĠ": 4188,
    "OĠ": 4189,
    "tychmiast": 4190,
    ",ĠpoĠ": 4191,
    "chÅĤopie": 4192,
    "cznymĠ": 4193,
    "ryb": 4194,
    "coraz": 4195,
    "ÅĽlad": 4196,
    "rodz": 4197,
    "dziennik": 4198,
    "zacjaĠ": 4199,
    "tre": 4200,
    "wszystkoĠ": 4201,
    "aÅ¼dyĠ": 4202,
    "oÅĤaĠ": 4203,
    "ĠpoÅĤ": 4204,
    "âĢĶĠod": 4205,
    "gwaÅĤ": 4206,
    "adze": 4207,
    "stawiaĠ": 4208,
    "powod": 4209,
    "przygot": 4210,
    "rodzeĠ": 4211,
    "jÄħcaĠ": 4212,
    "tenĠsposÃ³b": 4213,
    "lak": 4214,
    "ksiÄĻÅ¼y": 4215,
    "fr": 4216,
    "nastÄĻpujÄħceĠ": 4217,
    "prowadzeniaĠ": 4218,
    "uprawnie": 4219,
    "ta.": 4220,
    "ian": 4221,
    "XI": 4222,
    "inf": 4223,
    "GEM": 4224,
    "niejszyĠ": 4225,
    "ota": 4226,
    "Å¼ycz": 4227,
    "tÃ³r": 4228,
    "ĠdwaĠ": 4229,
    "ÄĻg": 4230,
    "czasuĠ": 4231,
    "awie": 4232,
    "czÄĻÅĽÄĩĠ": 4233,
    "kier": 4234,
    "choro": 4235,
    "Im": 4236,
    "ĠpoÅĤudni": 4237,
    "owych.": 4238,
    ",ĠoĠktÃ³rychĠmowaĠwĠ": 4239,
    "ostÄĻp": 4240,
    "uĠ(": 4241,
    "nienieĠ": 4242,
    "niniejszej": 4243,
    "s.": 4244,
    "//": 4245,
    "âīĪâīĪâīĪâīĪ": 4246,
    "ĠZdrowieĠ": 4247,
    "ÅĤy,Ġ": 4248,
    "nimiĠ": 4249,
    ".ĠSz": 4250,
    "samĠ": 4251,
    "kleĠ": 4252,
    "ciÄħgleĠ": 4253,
    "Ġwyb": 4254,
    "krzyk": 4255,
    "Ġwyda": 4256,
    ".ĠJestĠtoĠ": 4257,
    ".ĠÅļ": 4258,
    "WiÄĻcĠ": 4259,
    "Ġprzestrze": 4260,
    "dniu": 4261,
    "ji,Ġ": 4262,
    "ĠmieszkaÅĦ": 4263,
    "sym": 4264,
    "ÅĦskaĠ": 4265,
    "1989": 4266,
    "58": 4267,
    "owej.": 4268,
    "natomiast": 4269,
    "urzÄħdze": 4270,
    "terytor": 4271,
    "d.": 4272,
    "Euro": 4273,
    "L_": 4274,
    "Ġds": 4275,
    "tegi": 4276,
    "ĠĠĠ": 4277,
    "ÅĽÅĦĠ": 4278,
    "ratiaĠ": 4279,
    "ĠMiastaĠ": 4280,
    "eografiaĠ": 4281,
    "cieÅ¼": 4282,
    "Äħcy": 4283,
    "gÅĤoÅĽ": 4284,
    "dru": 4285,
    "ĠmÃ³j": 4286,
    "ĠtaĠ": 4287,
    "tykiĠ": 4288,
    "Lud": 4289,
    ",ĠdoĠ": 4290,
    "jednoĠ": 4291,
    "oÅĤa": 4292,
    "Ġsiebie": 4293,
    "yĠz": 4294,
    "niesi": 4295,
    "doty": 4296,
    "Krzy": 4297,
    "uÅĤkow": 4298,
    "Ġmieszka": 4299,
    "mer": 4300,
    "ien": 4301,
    "ochro": 4302,
    "ĠkwietniaĠ": 4303,
    "takieĠ": 4304,
    "ÅĤosz": 4305,
    "bronyĠ": 4306,
    "liczbaĠ": 4307,
    "owanej": 4308,
    "razieĠ": 4309,
    "zespo": 4310,
    "komp": 4311,
    "Komendan": 4312,
    "ĠGeografiaĠ": 4313,
    "pal": 4314,
    "czyta": 4315,
    "Hen": 4316,
    "ÅĽmiaÅĤ": 4317,
    "patrzy": 4318,
    "sÅĤĠ": 4319,
    "ÅĤĠw": 4320,
    "je,Ġ": 4321,
    "mojaĠ": 4322,
    "opowie": 4323,
    "aÅ¼ĠdoĠ": 4324,
    "ĠmnieĠ": 4325,
    "nÄħ,Ġ": 4326,
    "kazaÅĤ": 4327,
    "Ġtowarzy": 4328,
    "mysÅĤ": 4329,
    "âĢĶĠD": 4330,
    "ĠsiÄĻĠw": 4331,
    "obywate": 4332,
    "ZaĠ": 4333,
    "niemie": 4334,
    "okolicz": 4335,
    "are": 4336,
    "Ġmate": 4337,
    "ade": 4338,
    "uf": 4339,
    "ochronyĠ": 4340,
    "bezpieczeÅĦstwaĠ": 4341,
    "fizy": 4342,
    "Ġdochod": 4343,
    "Â§Âł": 4344,
    "ĠwzglÄĻduĠnaĠ": 4345,
    "dotyczÄħceĠ": 4346,
    "autobus": 4347,
    "Ġproce": 4348,
    "mowegoĠ": 4349,
    "Com": 4350,
    "Ã¼": 4351,
    "ĠmarcaĠ2026Ġroku": 4352,
    "ett": 4353,
    "taj": 4354,
    "ĠtÅĤu": 4355,
    "liwie": 4356,
    "niewa": 4357,
    "choÄĩĠ": 4358,
    "tÅĤuma": 4359,
    "ĠsamĠ": 4360,
    "dem": 4361,
    "olbrzym": 4362,
    "niewaÅ¼": 4363,
    "âĢĶĠM": 4364,
    "stwo": 4365,
    "uĠdoĠ": 4366,
    "nym,Ġ": 4367,
    "zatrzym": 4368,
    "rym": 4369,
    "miej": 4370,
    "Si": 4371,
    "Ġse": 4372,
    "budyn": 4373,
    "hi": 4374,
    "ÅĦski": 4375,
    "cyjnegoĠ": 4376,
    "ĠmiÄĻdzynarod": 4377,
    "region": 4378,
    "gram": 4379,
    "Ġtranspor": 4380,
    "edÅĤugĠ": 4381,
    "General": 4382,
    "ER": 4383,
    "burg": 4384,
    "SS": 4385,
    "ĠKlimatĠ": 4386,
    "czteryĠ": 4387,
    "dzieÅĦĠ": 4388,
    "miĠsiÄĻ": 4389,
    "ĠgdybyĠ": 4390,
    "reszcie": 4391,
    "natychmiast": 4392,
    "dziÄĩ": 4393,
    "oÅĽciĠiĠ": 4394,
    "oÅĽrod": 4395,
    "najwiÄĻksz": 4396,
    "?ĠC": 4397,
    "kim": 4398,
    "ÅĤaĠsiÄĻ": 4399,
    "zada": 4400,
    "razĠz": 4401,
    "ĠwrazĠzĠ": 4402,
    "jÄħcĠnaĠ": 4403,
    "owol": 4404,
    "czeÅĽniej": 4405,
    "artyku": 4406,
    "prawaĠ": 4407,
    "26.": 4408,
    "ukÅĤad": 4409,
    "Ġlat": 4410,
    "1,": 4411,
    "ÅĽrodkÃ³w": 4412,
    "anali": 4413,
    "ÅĽredni": 4414,
    "omatycz": 4415,
    "nari": 4416,
    "anty": 4417,
    ")Ġ2018/1046": 4418,
    "zmien": 4419,
    "partam": 4420,
    "ĠmarcaĠ2026ĠrokuĠ": 4421,
    "Bar": 4422,
    "atrzym": 4423,
    "niko": 4424,
    "koÅĽ": 4425,
    "miaÅĤĠ": 4426,
    "ĠâĢĶ": 4427,
    "ant": 4428,
    "arzyĠ": 4429,
    "ĠpÃ³ÅĤ": 4430,
    "rzeczyĠ": 4431,
    "ĠmÃ³gÅĤ": 4432,
    "kilkuĠ": 4433,
    "nejĠiĠ": 4434,
    "pliw": 4435,
    "jad": 4436,
    "gÅĤu": 4437,
    "nieĠzna": 4438,
    "laczegoĠ": 4439,
    "iĠod": 4440,
    "br": 4441,
    "woÅĤ": 4442,
    "atu": 4443,
    "Jo": 4444,
    "ĠpÅĤy": 4445,
    "ĠzamkniÄĻ": 4446,
    "chybaĠ": 4447,
    "stanieĠ": 4448,
    "Ġspe": 4449,
    "rzeczywist": 4450,
    "Wo": 4451,
    "Ġust.Ġ1": 4452,
    "Ġwprowadz": 4453,
    "Ġsierp": 4454,
    "Central": 4455,
    "noÅĽci.": 4456,
    "cep": 4457,
    "417": 4458,
    "Ġminist": 4459,
    "print": 4460,
    "Â°": 4461,
    "Ira": 4462,
    "ileĠ": 4463,
    "daÄĩĠ": 4464,
    "nÄħÄĩ": 4465,
    "ruszy": 4466,
    "anym": 4467,
    "ÅĽnieĠ": 4468,
    "Ġpozna": 4469,
    "wiedz": 4470,
    "kÅĤa": 4471,
    "innymiĠ": 4472,
    "dra": 4473,
    "aje": 4474,
    "Ġsil": 4475,
    ",ĠaĠwĠ": 4476,
    "nieĠmoÅ¼e": 4477,
    "przyzna": 4478,
    "Ġmed": 4479,
    "n,Ġ": 4480,
    "aktu": 4481,
    "Ġmor": 4482,
    "zostaÅĤyĠ": 4483,
    "prÃ³": 4484,
    "kowymĠ": 4485,
    "ham": 4486,
    "serw": 4487,
    "eta": 4488,
    "twÃ³r": 4489,
    "Ġprowadz": 4490,
    "prezy": 4491,
    "k.": 4492,
    "frastrukt": 4493,
    "zawie": 4494,
    "ĠzgodnieĠzĠ": 4495,
    "57": 4496,
    "lotnicze": 4497,
    "Przewodnicz": 4498,
    "Wol": 4499,
    "Tomasz": 4500,
    "ĠpÃ³ÅĤnoc": 4501,
    "Kategoria:M": 4502,
    "ĠweĠ": 4503,
    "ciÅĤ": 4504,
    ",ĠaĠw": 4505,
    "ĠzawoÅĤ": 4506,
    "ko,Ġ": 4507,
    "ych,Ġ": 4508,
    "rzekÅĤaĠ": 4509,
    "majÄħĠ": 4510,
    "sÅĤy": 4511,
    "francu": 4512,
    "ÄħĠnaĠ": 4513,
    "oĠtymĠ": 4514,
    "ci,Ġ": 4515,
    "ukry": 4516,
    "ĠpoÅĤÄħ": 4517,
    "oÅĽÄĩĠiĠ": 4518,
    "Ġpapie": 4519,
    "Å¼yÄĩ": 4520,
    "ÅĤamĠ": 4521,
    "dia": 4522,
    "onie": 4523,
    "ii": 4524,
    "ore": 4525,
    "tacjiĠ": 4526,
    "ope": 4527,
    "dzieleniaĠ": 4528,
    "czynnoÅĽciĠ": 4529,
    "bec": 4530,
    "ĠramowegoĠ": 4531,
    "Å¹rÃ³dÅĤo:Ġ": 4532,
    "ÃŃ": 4533,
    "ĠtuĠstacjaĠkolej": 4534,
    "dy,Ġ": 4535,
    "wrÃ³": 4536,
    "rÃ³Å¼nychĠ": 4537,
    "cieliĠ": 4538,
    "rzÄħ": 4539,
    "szczÄĻÅĽci": 4540,
    "bole": 4541,
    "oĠprze": 4542,
    "yĠpo": 4543,
    "ostate": 4544,
    "rzeniaĠ": 4545,
    "staĠ": 4546,
    "tali": 4547,
    "Ru": 4548,
    "wersy": 4549,
    "rÄĻb": 4550,
    "kazaniaĠ": 4551,
    "ĠdecyzjÄĻĠ": 4552,
    "Ġprakty": 4553,
    "ĠzĠ30.": 4554,
    "GO": 4555,
    "/UE": 4556,
    "finansowegoĠdotycz": 4557,
    "MariaĠ": 4558,
    "ĠâĢĵ": 4559,
    "berg": 4560,
    "fag": 4561,
    "Kategoria:Poli": 4562,
    "kaweĠmiejscaĠ": 4563,
    "Lawi": 4564,
    "Sek": 4565,
    "ĠwyÅ¼": 4566,
    ".ĠWi": 4567,
    "pobie": 4568,
    "reszt": 4569,
    "ĠpowaÅ¼": 4570,
    "ĠduÅ¼": 4571,
    "66": 4572,
    "zeĠz": 4573,
    "cieÅ¼Ġ": 4574,
    "Ġdok": 4575,
    "camiĠ": 4576,
    "iĠm": 4577,
    ".ĠZĠ": 4578,
    "jesteÅĽ": 4579,
    "grom": 4580,
    "zabaw": 4581,
    "lepiej": 4582,
    ".ĠIn": 4583,
    "upad": 4584,
    "puÅĽci": 4585,
    "Spo": 4586,
    "ia,Ġ": 4587,
    "owania,Ġ": 4588,
    "bla": 4589,
    "iot": 4590,
    "obliÅ¼": 4591,
    "Ġmuzy": 4592,
    "razie": 4593,
    "78": 4594,
    "wersyte": 4595,
    "ÅĽwiadcze": 4596,
    "ÅĽrodkiĠ": 4597,
    "utworz": 4598,
    "dziaÅĤaÅĦ": 4599,
    "akt": 4600,
    ":ĠS": 4601,
    "1]": 4602,
    "ĠHistoriaĠ": 4603,
    "nicy": 4604,
    "waÅĤyĠ": 4605,
    "!ĠNie": 4606,
    "rozpa": 4607,
    "Ġmusi": 4608,
    "Garro": 4609,
    "iĠzĠ": 4610,
    "ojcaĠ": 4611,
    "mieszka": 4612,
    "mistrz": 4613,
    "ks": 4614,
    ",ĠktoĠ": 4615,
    "Ġpowinie": 4616,
    "nieĠna": 4617,
    "Ġmoc": 4618,
    "ujemyĠ": 4619,
    "kowegoĠ": 4620,
    "niaĠwĠ": 4621,
    "komÃ³r": 4622,
    "Âłr.ĠoĠ": 4623,
    "b)": 4624,
    "obrachunkow": 4625,
    "uraĠ": 4626,
    "miÄĻdzynarod": 4627,
    "efe": 4628,
    "towejĠ": 4629,
    "rocÅĤaw": 4630,
    "ide": 4631,
    "YZ": 4632,
    "2020Ġr.": 4633,
    "Åģom": 4634,
    "KsiÄĻÅ¼ycaĠ": 4635,
    "ĠiĠpo": 4636,
    "rÄĻceĠ": 4637,
    "czynaĠ": 4638,
    "gan": 4639,
    "Gen": 4640,
    "neĠz": 4641,
    "doby": 4642,
    "legaĠ": 4643,
    "objÄĻ": 4644,
    "wyczaj": 4645,
    "kaÅ¼de": 4646,
    "ĠsÄħd": 4647,
    "czÄĻÅĽÄĩ": 4648,
    "rÃ³wĠ": 4649,
    "ÅĤowa": 4650,
    "yĠnaĠ": 4651,
    "âĢĿĠ(": 4652,
    "Zas": 4653,
    "kaÅ¼dymĠ": 4654,
    "cyjne": 4655,
    "JeÅĽliĠ": 4656,
    "kal": 4657,
    "stwier": 4658,
    "aktyw": 4659,
    "Prezyden": 4660,
    "red": 4661,
    "oznacza": 4662,
    "Obywa": 4663,
    "ÅĽwiataĠ": 4664,
    "ĠlutegoĠ2026": 4665,
    "owe,Ġ": 4666,
    "caÅĤaĠ": 4667,
    "niÄĩ": 4668,
    "jakiÅĽ": 4669,
    "czora": 4670,
    "pÄĻ": 4671,
    "zywa": 4672,
    "bÄĻdÄĻ": 4673,
    "Å¼oÅĤnierz": 4674,
    "Ġmili": 4675,
    "chĠiĠ": 4676,
    "ĠwtedyĠ": 4677,
    ".ĠCzyĠ": 4678,
    "mien": 4679,
    "nem": 4680,
    "Ġpozy": 4681,
    "zer": 4682,
    "emu": 4683,
    "sÅĤow": 4684,
    "rzebaĠ": 4685,
    "ast": 4686,
    "Ġduch": 4687,
    "Ġzapyta": 4688,
    "Ġzda": 4689,
    "lia": 4690,
    "ĠsÅĤuÅ¼b": 4691,
    "pomocyĠ": 4692,
    "osobaĠ": 4693,
    "odlegÅĤ": 4694,
    "umowyĠ": 4695,
    "niosekĠ": 4696,
    "bronyĠNarod": 4697,
    "DziennikuĠ": 4698,
    "prezen": 4699,
    "ĠGospodar": 4700,
    ",ĠaĠnastÄĻp": 4701,
    "uÅ¼yw": 4702,
    "-S": 4703,
    "Ġml": 4704,
    "gre": 4705,
    "ryzy": 4706,
    "Ġwschod": 4707,
    "rezolu": 4708,
    "EuropejskiejĠ": 4709,
    "strategi": 4710,
    "WÅĤad": 4711,
    "*Ġ10-": 4712,
    "cich": 4713,
    "sposob": 4714,
    "Ġzatrzym": 4715,
    "owaliĠ": 4716,
    "jestĠz": 4717,
    "stal": 4718,
    "najwiÄĻk": 4719,
    "cem": 4720,
    "cÃ³w,Ġ": 4721,
    "chle": 4722,
    "miesz": 4723,
    "szedÅĤĠ": 4724,
    "oÅĽÄĩ,Ġ": 4725,
    "Ġdobrze": 4726,
    "jakim": 4727,
    "ĠpaniĠ": 4728,
    "cznychĠ": 4729,
    "Ã³kiĠ": 4730,
    "ujÄĻ": 4731,
    "rozumiaÅĤ": 4732,
    "inĠ": 4733,
    "czyÅĤĠ": 4734,
    "niczegoĠ": 4735,
    "put": 4736,
    "siÄĻwziÄĻ": 4737,
    "spiera": 4738,
    "klucz": 4739,
    "jÄħĠw": 4740,
    "Å»eĠ": 4741,
    "Ġskrzy": 4742,
    "Europ": 4743,
    "staÅĤyĠ": 4744,
    "Ġwydaw": 4745,
    ",ĠwĠtymĠ": 4746,
    "Franci": 4747,
    "Ustaw": 4748,
    "ĠprzepisÃ³wĠ": 4749,
    "%Ġ": 4750,
    "odek": 4751,
    "71": 4752,
    "noczeÅĽ": 4753,
    "TrybunaÅĤuĠ": 4754,
    "ument": 4755,
    "pular": 4756,
    "193": 4757,
    "ĠTransportĠ": 4758,
    ".ĠJedna": 4759,
    "SerratiaĠ": 4760,
    "WP_": 4761,
    "âĶĢ": 4762,
    "jestĠlotniskoĠwĠ": 4763,
    "szkoÅĤyĠ": 4764,
    "nowuĠ": 4765,
    "Ġprawie": 4766,
    "Ġnau": 4767,
    "zdrowi": 4768,
    "ÄĩĠoĠ": 4769,
    "ÅĤ,Ġ": 4770,
    "Ga": 4771,
    "pamiÄĻ": 4772,
    "Ġdw": 4773,
    "aÅĤ,Ġ": 4774,
    "miastaĠ": 4775,
    "ĠpieniÄĻ": 4776,
    "med": 4777,
    "ĠmÄĻÅ¼": 4778,
    "usÅĤy": 4779,
    "Mat": 4780,
    "niewaÅ¼Ġ": 4781,
    "ra,Ġ": 4782,
    "koszt": 4783,
    "was": 4784,
    "Ġwskaz": 4785,
    "ĠPrze": 4786,
    "pital": 4787,
    "wid": 4788,
    "jemĠ": 4789,
    "ÅĤaci": 4790,
    "Tre": 4791,
    "brzmienie:": 4792,
    "kreÅĽlaĠ": 4793,
    "GÃ³r": 4794,
    "ogranicz": 4795,
    "wizyj": 4796,
    "ĠdostÄĻp": 4797,
    "czy.": 4798,
    "ĠkmĠ": 4799,
    "DziennikĠ": 4800,
    "ECYZ": 4801,
    "ECYZJ": 4802,
    "Dav": 4803,
    "Ġwers": 4804,
    "[1]": 4805,
    "ĠCie": 4806,
    "pieÅĽÅĦĠ": 4807,
    "(WD)": 4808,
    "Kategoria:PolskieĠ": 4809,
    "swegoĠ": 4810,
    "zawsze": 4811,
    "âĢĶĠI": 4812,
    "Ġdrug": 4813,
    "oĠiĠ": 4814,
    "rÃ³j": 4815,
    "Ġpocz": 4816,
    "ĠzajÄĻ": 4817,
    "izbyĠ": 4818,
    "duch": 4819,
    "pot": 4820,
    "raw": 4821,
    "Ġdoko": 4822,
    "ans": 4823,
    "wierzÄĻ": 4824,
    "uĠiĠz": 4825,
    "leczĠ": 4826,
    "pomnie": 4827,
    "okaz": 4828,
    "ĠwystÄĻp": 4829,
    "nada": 4830,
    "stok": 4831,
    "Ġ-": 4832,
    "52": 4833,
    "odpowied": 4834,
    "41": 4835,
    "kowie": 4836,
    "Ġprzeprowadz": 4837,
    "Kar": 4838,
    "anow": 4839,
    "scypli": 4840,
    "funkcjonariusz": 4841,
    "finansoweĠ": 4842,
    "Ġprezy": 4843,
    "Jakub": 4844,
    "ion": 4845,
    "idĠ": 4846,
    "2019,Ġs.Ġ1": 4847,
    "Fil": 4848,
    "ZobaczĠteÅ¼": 4849,
    "Kategoria:N": 4850,
    "Ameryka": 4851,
    "stron": 4852,
    "Ġzawsze": 4853,
    "ÄĻdzie": 4854,
    "KiedyĠ": 4855,
    ",ĠktÃ³rychĠ": 4856,
    "ano": 4857,
    "kĠiĠ": 4858,
    "âĢĶĠZ": 4859,
    "niku": 4860,
    "wiaĠ": 4861,
    "cemĠ": 4862,
    "jut": 4863,
    "koÅĽciĠ": 4864,
    "niÄĩĠ": 4865,
    "âĢĶĠW": 4866,
    "liÅĽcie": 4867,
    "dziwi": 4868,
    "nieĠpod": 4869,
    "oblicz": 4870,
    "oczywi": 4871,
    "Å¼ycia,Ġ": 4872,
    "niaĠz": 4873,
    "osobist": 4874,
    "formyĠ": 4875,
    "emerytal": 4876,
    "69": 4877,
    "ĠlistopadaĠ": 4878,
    "Ġprokurator": 4879,
    "ramach": 4880,
    "owy.": 4881,
    "Âł000ĠzÅĤotychâĢĿ": 4882,
    "CZ": 4883,
    "ia.": 4884,
    "retarzĠ": 4885,
    "ĠzÂł": 4886,
    "Ġtys.Ġ": 4887,
    "ira": 4888,
    "KsiÄĻÅ¼yc": 4889,
    "SamochodemĠ": 4890,
    "domu": 4891,
    "ciele": 4892,
    "!ĠW": 4893,
    "to,ĠÅ¼eĠ": 4894,
    "ychĠiĠ": 4895,
    "mÃ³gÅĤ": 4896,
    "spokoj": 4897,
    "niejszych": 4898,
    "Ġdrze": 4899,
    "kla": 4900,
    "Pow": 4901,
    "ciekaw": 4902,
    "ĠmiÄĻ": 4903,
    "bywaĠ": 4904,
    "zwoli": 4905,
    "nagra": 4906,
    "Ġzamie": 4907,
    "jednymĠ": 4908,
    "nieĠmoÅ¼eĠ": 4909,
    "wÅĤaszcz": 4910,
    "Ba": 4911,
    "Ã³wczas": 4912,
    "Lecz": 4913,
    "Bu": 4914,
    "dor": 4915,
    "nikiemĠ": 4916,
    "owanejĠ": 4917,
    "ger": 4918,
    "kwot": 4919,
    "prawiedliwoÅĽciĠ": 4920,
    "uĠPa": 4921,
    "nastÄħpi": 4922,
    "odziel": 4923,
    "danych": 4924,
    "OS": 4925,
    "ce.": 4926,
    "Ġtajem": 4927,
    "Miej": 4928,
    "nr": 4929,
    "przewodniczÄħcegoĠ": 4930,
    "%)": 4931,
    "sko-": 4932,
    "Mart": 4933,
    "tytu": 4934,
    "szkol": 4935,
    "oddziaÅĤ": 4936,
    "ĠswojÄħ": 4937,
    "szal": 4938,
    "ĠzupeÅĤ": 4939,
    "wiÄĻcejĠ": 4940,
    "klÄĻ": 4941,
    "skich,Ġ": 4942,
    "ÅĤyĠsiÄĻĠ": 4943,
    "cia,Ġ": 4944,
    "rusze": 4945,
    "sÅĤuch": 4946,
    "mier": 4947,
    "jeĠw": 4948,
    "ciÄħÅ¼": 4949,
    "Ġtrw": 4950,
    "kap": 4951,
    "krajuĠ": 4952,
    "skut": 4953,
    "zeĠsob": 4954,
    "zewnÄĻtrz": 4955,
    "ogiĠ": 4956,
    "Gre": 4957,
    "43": 4958,
    "karbuĠPa": 4959,
    "ÅĽrodkÃ³wĠ": 4960,
    "realizacjiĠ": 4961,
    "westy": 4962,
    "MinistraĠ": 4963,
    "organizacjiĠ": 4964,
    "komisjiĠ": 4965,
    "infrastrukt": 4966,
    "ÅĤa.": 4967,
    "ĠwiekuĠ": 4968,
    "DziennikuĠUrzÄĻd": 4969,
    "riaÅĤ": 4970,
    "ĠStra": 4971,
    "ĠPoli": 4972,
    "arygod": 4973,
    "ÂłÂłÂł": 4974,
    "Ġ(UE": 4975,
    "2020/": 4976,
    "Dz.U.ĠLĠ29": 4977,
    "aud": 4978,
    "(19": 4979,
    "Ġmiej": 4980,
    "odzien": 4981,
    "inÄĻ": 4982,
    "ĠzaczÄħ": 4983,
    "wiĠ": 4984,
    "matkaĠ": 4985,
    "uczyni": 4986,
    ".ĠWie": 4987,
    "rÃ³Å¼neĠ": 4988,
    "szliĠ": 4989,
    "wĠtymĠ": 4990,
    "Ġswoich": 4991,
    "mojeĠ": 4992,
    "Å¼emĠ": 4993,
    "nÄħtrz": 4994,
    "chodzie": 4995,
    "dli": 4996,
    "ĠwĠnie": 4997,
    "tat": 4998,
    "Ġprzyczy": 4999,
    "rum": 5000,
    "omi": 5001,
    "siÄĻg": 5002,
    "fal": 5003,
    "Ġzbior": 5004,
    "ustawyĠzĠdniaĠ": 5005,
    "86": 5006,
    "spoÅĤecznej": 5007,
    "RozdziaÅĤĠ": 5008,
    "rozumieniu": 5009,
    "orazĠdoĠ": 5010,
    "2,": 5011,
    "wykonaw": 5012,
    "ch.": 5013,
    ",ĠjakĠrÃ³wnieÅ¼Ġ": 5014,
    "DziennikuĠUrzÄĻdowymĠ": 5015,
    "gÅĤosowaniaĠ": 5016,
    "yÅ¼": 5017,
    "je.": 5018,
    "Ġzachod": 5019,
    "Be": 5020,
    "Ġproces": 5021,
    ".in": 5022,
    "ĠtakiĠ": 5023,
    "WÅĤosze": 5024,
    "acjiĠ": 5025,
    "Ġmnie": 5026,
    "inne": 5027,
    "Per": 5028,
    "powiedziaÅĤ": 5029,
    "kami": 5030,
    "gÅĤosem": 5031,
    "âĢĶĠJak": 5032,
    "coÅĽĠ": 5033,
    "jÄħĠnaĠ": 5034,
    "iĠprzy": 5035,
    "taÅĤaĠ": 5036,
    "inÄħ": 5037,
    "ĠiĠwy": 5038,
    "naĠtoĠ": 5039,
    "ĠtÄĻĠ": 5040,
    "uka": 5041,
    "aÅ¼Ġ": 5042,
    "papie": 5043,
    "zdaw": 5044,
    "corazĠ": 5045,
    "deĠwszystkimĠ": 5046,
    "zakoÅĦ": 5047,
    ".ĠPie": 5048,
    "oru": 5049,
    "Ã³wĠdoĠ": 5050,
    "bol": 5051,
    "Ci": 5052,
    "nÄħÄĩĠ": 5053,
    "zdrow": 5054,
    "drowi": 5055,
    "odpowiedziĠ": 5056,
    "tu,Ġ": 5057,
    "ĠPo": 5058,
    "Ber": 5059,
    "ksztaÅĤce": 5060,
    "spomnie": 5061,
    "nia,": 5062,
    "PaÅĦstw": 5063,
    "uzyska": 5064,
    "Ġwykonaw": 5065,
    "wspÃ³l": 5066,
    "PolskaĠ": 5067,
    "ety": 5068,
    "11.12.2020": 5069,
    "2006": 5070,
    "ss": 5071,
    "proble": 5072,
    "cji,ĠwĠ": 5073,
    "()": 5074,
    "ĠNa": 5075,
    "siedzibaĠ": 5076,
    "reÅ¼yser": 5077,
    "Henry": 5078,
    "smut": 5079,
    "atrz": 5080,
    "ÅĤĠsiÄĻĠdoĠ": 5081,
    "Ġwzro": 5082,
    "ÅĤĠz": 5083,
    ".ĠWiÄĻ": 5084,
    "szero": 5085,
    "czyÅĤaĠ": 5086,
    "ÅĤÃ³Å¼": 5087,
    "ĠwĠtejĠ": 5088,
    "caÅĤymĠ": 5089,
    "samymĠ": 5090,
    "Ġpal": 5091,
    "mÃ³jĠ": 5092,
    "przeci": 5093,
    "nieĠmÃ³gÅĤ": 5094,
    "ÅĤo,Ġ": 5095,
    "jestĠnie": 5096,
    "czÄĻÅĽcie": 5097,
    "legi": 5098,
    "ciaÅ¼": 5099,
    "ĠtakÅ¼e": 5100,
    "cznej": 5101,
    "szekĠ": 5102,
    "yĠdoĠ": 5103,
    "Ġzad": 5104,
    "Ġzach": 5105,
    "indy": 5106,
    "To": 5107,
    "ator": 5108,
    "czerwcaĠ": 5109,
    "Äħ,": 5110,
    "uĠS": 5111,
    "79": 5112,
    "niezbÄĻd": 5113,
    "cjali": 5114,
    "pomocÄħĠ": 5115,
    "rozdziaÅĤĠ": 5116,
    "coweĠ": 5117,
    "(WE)ĠnrĠ": 5118,
    "agencjiĠ": 5119,
    "(P": 5120,
    "XV": 5121,
    "<<": 5122,
    "ĠCiekaweĠmiejscaĠ": 5123,
    ",ĠâĺıĠ+": 5124,
    "musi": 5125,
    "Ġwyso": 5126,
    "Cho": 5127,
    "czeniu": 5128,
    "raj": 5129,
    "Cie": 5130,
    "naszejĠ": 5131,
    "ĠpowiedziaÅĤ": 5132,
    "ĠmÃ³w": 5133,
    "arzĠ": 5134,
    "aÅĤĠw": 5135,
    "ĠwszystkieĠ": 5136,
    "owaÅĤoĠ": 5137,
    "tyleĠ": 5138,
    "jakĠnaj": 5139,
    "znale": 5140,
    "noweĠ": 5141,
    "czÄĻst": 5142,
    "Ġwido": 5143,
    "rza": 5144,
    "ustan": 5145,
    "innyĠ": 5146,
    "caÅĤeĠ": 5147,
    "cie,Ġ": 5148,
    "ono": 5149,
    "wspÃ³ÅĤ": 5150,
    "owanymĠ": 5151,
    "ÄħcaĠ": 5152,
    "ĠpaÅĦstwaĠ": 5153,
    "przestrze": 5154,
    "pres": 5155,
    "otrzymujeĠbrzmienie:": 5156,
    "PolsceĠ": 5157,
    "uzysk": 5158,
    "ski.": 5159,
    "przestÄĻp": 5160,
    "aÅĤÄħcznikĠ": 5161,
    "ĠzwiÄħzkuĠz": 5162,
    "319": 5163,
    "ÅĦ.": 5164,
    "Ġtrak": 5165,
    "zarzÄħdzeniaĠ": 5166,
    "tera": 5167,
    "L_2020": 5168,
    "PL.0": 5169,
    "xml": 5170,
    "11.12.2020ÂłÂłÂł": 5171,
    "DziennikĠUrzÄĻd": 5172,
    "DziennikĠUrzÄĻdowyĠ": 5173,
    "DECYZJ": 5174,
    ")Ġ2020/": 5175,
    "ĠEUROPEJSKIE": 5176,
    "sprawozdanieĠ": 5177,
    "2019,Ġs.Âł1": 5178,
    "oÂł": 5179,
    "BiaÅĤ": 5180,
    "nieĠS": 5181,
    ".ĠS.Ġ": 5182,
    "ĠPolitykaĠ": 5183,
    "ĠGospodarkaĠ": 5184,
    "trzy": 5185,
    "wyd": 5186,
    "zek": 5187,
    "powiad": 5188,
    "Ġmil": 5189,
    "ubra": 5190,
    "imieniuĠ": 5191,
    "bru": 5192,
    "kÄħ,Ġ": 5193,
    "wych": 5194,
    "gdzieĠ": 5195,
    "jednaĠ": 5196,
    "szlachet": 5197,
    "Ġmas": 5198,
    "Jest": 5199,
    "ĠÅ»": 5200,
    "ĠÅļ": 5201,
    "gni": 5202,
    "bili": 5203,
    "Ġprzyzna": 5204,
    "jednoczeÅĽ": 5205,
    "chaj": 5206,
    "lej": 5207,
    ".ĠSt": 5208,
    "bÄĻdÄħĠ": 5209,
    "ĠwieluĠ": 5210,
    "zef": 5211,
    "dek": 5212,
    "lip": 5213,
    "Woj": 5214,
    "ÅĤoÅ¼oneĠ": 5215,
    "nagrodze": 5216,
    "ÅĽwiadczeniaĠ": 5217,
    "cyjneĠ": 5218,
    "ĠprzepisyĠ": 5219,
    "tekst": 5220,
    "emis": 5221,
    "datkÃ³wĠ": 5222,
    "skiego.": 5223,
    "korzysty": 5224,
    "giiĠ": 5225,
    "radi": 5226,
    "287": 5227,
    "ĠpaÅºdziernikaĠ2012": 5228,
    "DavidĠ": 5229,
    "SekretarzĠ": 5230,
    "8ĠzĠ": 5231,
    "cjiĠwĠ": 5232,
    "oznaczaĠ": 5233,
    "centrumĠ": 5234,
    "ve": 5235,
    "naĠS": 5236,
    "rekonwers": 5237,
    "Autor:Ġniezna": 5238,
    "krajuĠzwiÄħz": 5239,
    "dnieĠlot": 5240,
    "brod": 5241,
    "pierwszyĠ": 5242,
    "lubi": 5243,
    "dziÅĽĠ": 5244,
    "ulicyĠ": 5245,
    "ÅĤĠiĠ": 5246,
    "otwor": 5247,
    "zaczÄĻ": 5248,
    "jednej": 5249,
    "czÄħc": 5250,
    "chÄĻĠ": 5251,
    "adres": 5252,
    "waj": 5253,
    "ĠskoÅĦ": 5254,
    "odkry": 5255,
    "koÅĦcaĠ": 5256,
    "jakiÅĽĠ": 5257,
    "ujÄħcĠ": 5258,
    "asi": 5259,
    "tajem": 5260,
    "naĠwĠ": 5261,
    "nieĠbÄĻdzie": 5262,
    "tÃ³wĠ": 5263,
    "numer": 5264,
    "trakt": 5265,
    "czÅĤowiekaĠ": 5266,
    "ksiÄĻdz": 5267,
    "pozost": 5268,
    "odrÄĻb": 5269,
    "ty.": 5270,
    "teren": 5271,
    "grani": 5272,
    "okreÅĽle": 5273,
    "ustana": 5274,
    "atmosfer": 5275,
    "PrzewodniczÄħcy": 5276,
    "Obrachunk": 5277,
    "ĠâĢĵĠC": 5278,
    "/2013": 5279,
    "2.ÂłÂłÂł": 5280,
    "ĠLOT": 5281,
    "ĠNie": 5282,
    "bakteriofag": 5283,
    "ĠmÄĻskie": 5284,
    "Kategoria:Ameryka": 5285,
    "ĠPurwokertoĠ": 5286,
    "mon": 5287,
    "wiÄĻcej": 5288,
    "âĢĶĠS": 5289,
    "no,Ġ": 5290,
    "ÅĤaĠdoĠ": 5291,
    "oczym": 5292,
    "bliskoĠ": 5293,
    "oĠz": 5294,
    "handlu": 5295,
    "jakiej": 5296,
    "pomni": 5297,
    "ak,Ġ": 5298,
    "lko": 5299,
    "mili": 5300,
    "niÄħd": 5301,
    "staÅĤĠ": 5302,
    "jakiĠ": 5303,
    "pisz": 5304,
    "panaĠ": 5305,
    "godzinyĠ": 5306,
    "ÄĻĠdoĠ": 5307,
    "bat": 5308,
    "Äħcej": 5309,
    "cÄĻĠ": 5310,
    "muĠsiÄĻ": 5311,
    "nie,ĠÅ¼eĠ": 5312,
    "Ġdal": 5313,
    "otwie": 5314,
    "ÅĤud": 5315,
    "Å¼yÄĩĠ": 5316,
    "zdar": 5317,
    "owaÅĤyĠ": 5318,
    "krew": 5319,
    "anĠ": 5320,
    "szybkoĠ": 5321,
    "wiadom": 5322,
    "No": 5323,
    "Ġpodczas": 5324,
    "ler": 5325,
    "kowyĠ": 5326,
    "JÃ³": 5327,
    "prowadze": 5328,
    "twor": 5329,
    "funkcjonariuszyĠ": 5330,
    "ktÃ³rymĠm": 5331,
    "ustale": 5332,
    "nego.": 5333,
    "ĠskreÅĽlaĠ": 5334,
    "przedni": 5335,
    "64": 5336,
    "wĠsprawieĠ": 5337,
    "aĠS": 5338,
    "ĠpublikacjiĠ": 5339,
    "owo-": 5340,
    "Ukra": 5341,
    "1.xml": 5342,
    "VĠdoĠ": 5343,
    "ĠzĠdniaĠ25": 5344,
    "2010": 5345,
    "Ġm.in": 5346,
    "\",Ġ\"": 5347,
    "infek": 5348,
    "imiÄĻĠmÄĻskie": 5349,
    "Ġzapis": 5350,
    "Ġtrzym": 5351,
    "kujÄĻ": 5352,
    "rzekÅĤ:čĠ": 5353,
    "czasem": 5354,
    "blad": 5355,
    "kup": 5356,
    "uĠwy": 5357,
    "Ġmal": 5358,
    "jestem": 5359,
    "ÅĤak": 5360,
    "krw": 5361,
    "mni": 5362,
    "Czas": 5363,
    "otwart": 5364,
    "lem": 5365,
    "uszcza": 5366,
    "przepis": 5367,
    "staryĠ": 5368,
    "zaÅĽ": 5369,
    "ĠzaÅĽ": 5370,
    "sun": 5371,
    "jÄħcym": 5372,
    "ÅĤĠwĠ": 5373,
    "Rzym": 5374,
    "hu": 5375,
    "cÄħ": 5376,
    "BoÅ¼e": 5377,
    "aÅĤaĠsiÄĻĠ": 5378,
    "obi": 5379,
    "ysÅĤ": 5380,
    "ksiÄħdz": 5381,
    "ÅĦĠiĠ": 5382,
    "szkaĠ": 5383,
    "sÅĤuÅ¼b": 5384,
    "Ġprzekona": 5385,
    "prawa": 5386,
    "kam": 5387,
    "ĠprzysÅĤug": 5388,
    "75": 5389,
    "zmian": 5390,
    "niosek": 5391,
    "ĠplacÃ³w": 5392,
    "MinistrÃ³w": 5393,
    "jektĠ": 5394,
    "Fundu": 5395,
    "technicz": 5396,
    "ĠudzieleniaĠ": 5397,
    "mogÄħ": 5398,
    "nictwoĠ": 5399,
    "niz": 5400,
    "ktyĠ": 5401,
    "5,": 5402,
    "TrybunaÅĤĠ": 5403,
    "Obywatel": 5404,
    "AntoniĠ": 5405,
    "ugust": 5406,
    "ĠâĢĵĠC9-00": 5407,
    "nrÂł": 5408,
    "orazĠuchylajÄħceĠ": 5409,
    "Unii,Ġ": 5410,
    "BudÅ¼e": 5411,
    "1.ÂłÂłÂł": 5412,
    "seriaĠ": 5413,
    ")Ġ(": 5414,
    "imieninyĠobchodziĠ": 5415,
    "ĠtrzyĠ": 5416,
    "Å¼al": 5417,
    "rÄĻce": 5418,
    "cof": 5419,
    "set": 5420,
    "aÅĤam": 5421,
    "ramiĠ": 5422,
    "kwia": 5423,
    "jaÅĽnie": 5424,
    "takichĠ": 5425,
    ".ĠGdyĠ": 5426,
    "maty": 5427,
    "Ġprzedmiot": 5428,
    "mieniaĠ": 5429,
    "chceĠ": 5430,
    "krze": 5431,
    "pali": 5432,
    "inteli": 5433,
    "nieĠpot": 5434,
    "nasze": 5435,
    "jÄħcymiĠ": 5436,
    "bliote": 5437,
    "ĠpodrÃ³": 5438,
    "jakieÅĽ": 5439,
    "aÅĤoĠsiÄĻĠ": 5440,
    "Juli": 5441,
    "iumĠ": 5442,
    "Du": 5443,
    ".ĠMoÅ¼naĠ": 5444,
    "Ġwieku": 5445,
    "68": 5446,
    "ÅĽwiadczeÅĦ": 5447,
    "Ġwynika": 5448,
    "Ġtre": 5449,
    "Ġposiada": 5450,
    "ĠwpÅĤyw": 5451,
    "peten": 5452,
    "zwiÄħzaneĠ": 5453,
    "mio": 5454,
    "her": 5455,
    "oner": 5456,
    "TrybunaÅĤuĠObrachunk": 5457,
    "1/2014": 5458,
    "TrybunaÅĤowiĠ": 5459,
    "2009": 5460,
    "2004": 5461,
    "komite": 5462,
    "konkre": 5463,
    "terĠ": 5464,
    "I:Ġ": 5465,
    ".Ġ\"": 5466,
    "ĠÅ¹rÃ³dÅĤo:Ġsez.Ġ": 5467,
    ",Ġodc.Ġ": 5468,
    "biega": 5469,
    "brak": 5470,
    "koleg": 5471,
    "jeÅ¼dÅ¼": 5472,
    "ĠsÅĤy": 5473,
    "ÄĻĠz": 5474,
    "Ã³rz": 5475,
    "stanÄħ": 5476,
    "âĢĶĠtoĠ": 5477,
    "upÅĤy": 5478,
    "armi": 5479,
    "nionych": 5480,
    "zerw": 5481,
    "ÅļwiÄĻ": 5482,
    "Ġsyn": 5483,
    "innegoĠ": 5484,
    "cjamiĠ": 5485,
    "czego": 5486,
    "fot": 5487,
    "szy,Ġ": 5488,
    ".ĠTe": 5489,
    "gwaÅĤtow": 5490,
    "niejszymĠ": 5491,
    "yĠwy": 5492,
    "âĢĶĠAĠ": 5493,
    "ĠprÄĻd": 5494,
    "Ġdalej": 5495,
    "spad": 5496,
    "musiĠ": 5497,
    "Ġwykon": 5498,
    "jaÅĽni": 5499,
    "rew": 5500,
    "mierz": 5501,
    "dza": 5502,
    "opieku": 5503,
    ",ĠjakĠiĠ": 5504,
    "bran": 5505,
    "ĠskreÅĽlaĠsiÄĻ": 5506,
    "zobowiÄħzu": 5507,
    "integra": 5508,
    "coĠnajmniejĠ": 5509,
    "stosunku": 5510,
    "kwali": 5511,
    "owego,Ġ": 5512,
    "cyjnychĠ": 5513,
    "dur": 5514,
    "Å¼yt": 5515,
    "cech": 5516,
    "Ġzalece": 5517,
    "zmieniajÄħceĠ": 5518,
    "Kla": 5519,
    "PÃ³ÅĤnoc": 5520,
    "ok.Ġ": 5521,
    ",ĠâĢŀ": 5522,
    "Niemcze": 5523,
    "Nor": 5524,
    "elod": 5525,
    "krajuĠzwiÄħzkowymĠ": 5526,
    "ĠpomiÄĻdzyĠ": 5527,
    "del": 5528,
    "kiĠw": 5529,
    "WiÄĻc": 5530,
    "WÅĤo": 5531,
    "ĠwĠdom": 5532,
    "dwie": 5533,
    "cos": 5534,
    "ÅĤabyĠ": 5535,
    "nemu": 5536,
    "rzych": 5537,
    "mimoĠ": 5538,
    "kuĠiĠ": 5539,
    "dziÄĻcz": 5540,
    "siÄĻĠd": 5541,
    "noÅĽciÄħĠ": 5542,
    "gaÅĤ": 5543,
    "jesz": 5544,
    "ograf": 5545,
    "Å¼adnegoĠ": 5546,
    "Ã³wna": 5547,
    "mun": 5548,
    "utĠ": 5549,
    "ĠpozaĠ": 5550,
    "trafi": 5551,
    "speÅĤ": 5552,
    "Ġwiadom": 5553,
    ".ĠOdĠ": 5554,
    "odpowiada": 5555,
    "Ġpara": 5556,
    "ÅĦczy": 5557,
    "zysk": 5558,
    "kowych": 5559,
    "kana": 5560,
    "nioneĠ": 5561,
    "land": 5562,
    "kowejĠ": 5563,
    "cznego": 5564,
    "cyjnyĠ": 5565,
    "organyĠ": 5566,
    "Ġpowszech": 5567,
    "Ġwybra": 5568,
    "Ġzainteres": 5569,
    "1/": 5570,
    "ton": 5571,
    "eld": 5572,
    "Ġpart": 5573,
    "Uniwersyte": 5574,
    "kreÅĽli": 5575,
    "bÅĤÄĻd": 5576,
    ".ĠE": 5577,
    "dziamiĠ": 5578,
    "Regulamin": 5579,
    "ĠwykonaniaĠbudÅ¼etuĠ": 5580,
    ",ĠwÂł": 5581,
    "konkret": 5582,
    "lataĠ": 5583,
    "leci": 5584,
    "Ġwes": 5585,
    "jednÄħĠ": 5586,
    "kiĠz": 5587,
    "rzad": 5588,
    "nÄħĠiĠ": 5589,
    "ard": 5590,
    "szczÄĻÅĽliw": 5591,
    "megoĠ": 5592,
    "ach,Ġ": 5593,
    "kÃ³wĠiĠ": 5594,
    "dziecko": 5595,
    "ÅĤach": 5596,
    "niejszeĠ": 5597,
    "nikom": 5598,
    "Ġziemi": 5599,
    "prÄĻd": 5600,
    "sklep": 5601,
    "decyd": 5602,
    "nieĠpos": 5603,
    "spotka": 5604,
    "wypad": 5605,
    "bÃ³j": 5606,
    "nasz": 5607,
    "siost": 5608,
    "ĠpostaciĠ": 5609,
    "zdol": 5610,
    "ÅĤot": 5611,
    "Gdzie": 5612,
    "niecoĠ": 5613,
    "nowo": 5614,
    "owej,Ġ": 5615,
    "cuch": 5616,
    "obronyĠ": 5617,
    "okreÅĽlonychĠwĠ": 5618,
    "nieĠzostaÅĤoĠ": 5619,
    "kompeten": 5620,
    "I,": 5621,
    "tworz": 5622,
    "ĠstyczniaĠ": 5623,
    "zasadyĠ": 5624,
    "oprac": 5625,
    "program": 5626,
    "uÅ¼ytk": 5627,
    "Lot": 5628,
    "odyĠ": 5629,
    "znajdujeĠsiÄĻ": 5630,
    ".ĠNastÄĻp": 5631,
    "Her": 5632,
    "OLI": 5633,
    "PARLAMENTU": 5634,
    "ĠEUROPEJSKIEGO": 5635,
    "13ĠmajaĠ": 5636,
    "TrybunaÅĤĠObrachunkow": 5637,
    "ĠwykonaniaĠbudÅ¼etu": 5638,
    "uwzglÄĻdniajÄħcĠart.Âł": 5639,
    "usĠW": 5640,
    "fli": 5641,
    "automatycz": 5642,
    "ĠznajdujeĠsiÄĻĠ": 5643,
    "(...": 5644,
    "Cyber": 5645,
    "ciejĠ": 5646,
    "aÅĤĠwĠ": 5647,
    "ĠwszyscyĠ": 5648,
    "waÅĤĠ": 5649,
    "usu": 5650,
    "tÄħ": 5651,
    "niejszychĠ": 5652,
    "lepiejĠ": 5653,
    "ÅĤÄĻ": 5654,
    "rywa": 5655,
    "nagleĠ": 5656,
    "rzeczy": 5657,
    "opowiada": 5658,
    "Hiszpa": 5659,
    "niÄħdze": 5660,
    "kawaÅĤ": 5661,
    "damĠ": 5662,
    "innym": 5663,
    "ĠwĠser": 5664,
    "owaniemĠ": 5665,
    "ryĠiĠ": 5666,
    "fikacjiĠ": 5667,
    "rozum": 5668,
    "czÅĤowiekĠ": 5669,
    "sÅĤucha": 5670,
    "ĠtejĠ": 5671,
    "Ã³Å¼Ġ": 5672,
    "pust": 5673,
    "ÅĽmierci": 5674,
    "Jez": 5675,
    "mak": 5676,
    "uĠich": 5677,
    "chunkÃ³w": 5678,
    ".ĠLe": 5679,
    "ryst": 5680,
    "ah": 5681,
    "archi": 5682,
    "ÅĤow": 5683,
    "skuĠ": 5684,
    "ĠPa": 5685,
    "ktÃ³rymĠmowaĠwĠ": 5686,
    "okresieĠ": 5687,
    "zeĠwzglÄĻduĠnaĠ": 5688,
    "stopniaĠ": 5689,
    "gat": 5690,
    "mentĠ": 5691,
    "prawdopodob": 5692,
    "fĠ": 5693,
    "ustanawia": 5694,
    "DECYZJAĠ": 5695,
    "ÅĤoÅ¼oneĠprzezĠ": 5696,
    "/UE,ĠaĠtakÅ¼eĠ": 5697,
    "KontroliĠBudÅ¼e": 5698,
    "KlausĠW": 5699,
    "8ĠzĠ26.": 5700,
    "10.2012": 5701,
    "2014": 5702,
    "2025": 5703,
    "gastronom": 5704,
    "Ġprotein": 5705,
    "tyj": 5706,
    ":ĠâĢĶĠ": 5707,
    "chcÄĻ": 5708,
    "jedenĠ": 5709,
    "lini": 5710,
    "nieĠmie": 5711,
    "state": 5712,
    "ÄĻĠwĠ": 5713,
    "zebra": 5714,
    "temu": 5715,
    "gÅĤowyĠ": 5716,
    "krop": 5717,
    "ĠwiÄĻk": 5718,
    "ech": 5719,
    "jÄħcĠsiÄĻ": 5720,
    "ĠpoczÄħt": 5721,
    "nieĠsiÄĻĠ": 5722,
    "aĠtoĠ": 5723,
    "cieĠz": 5724,
    "Ġwarun": 5725,
    "kowiĠ": 5726,
    "syĠ": 5727,
    "takiĠ": 5728,
    "prawyĠ": 5729,
    "czÄħĠ": 5730,
    "ÄħcejĠ": 5731,
    "ĠPrzy": 5732,
    "usze": 5733,
    "Mal": 5734,
    "rywat": 5735,
    "naleÅº": 5736,
    "neĠwy": 5737,
    "sÅĤuÅ¼byĠ": 5738,
    "port": 5739,
    "nadaw": 5740,
    "ĠpeÅĤniĠ": 5741,
    "rozma": 5742,
    "umiejÄĻt": 5743,
    "3-": 5744,
    "dochod": 5745,
    "Âł;": 5746,
    "ogÅĤos": 5747,
    "Ġgmin": 5748,
    "aĠ(": 5749,
    "Åļrod": 5750,
    "okresie": 5751,
    "sytua": 5752,
    "Ġpoinform": 5753,
    "zakres": 5754,
    "zezwo": 5755,
    "elektry": 5756,
    "nÄħ.": 5757,
    "500": 5758,
    "szew": 5759,
    "ÅĦscyĠ": 5760,
    "L_2020417": 5761,
    "L_2020417PL.0": 5762,
    "LĠ417": 5763,
    "DECYZJAĠPARLAMENTU": 5764,
    "ĠEUROPEJSKIEGOĠ(UE": 5765,
    "zĠdniaĠ13ĠmajaĠ": 5766,
    "PARLAMENTĠEUROPEJSK": 5767,
    "uwzglÄĻdniajÄħcĠp": 5768,
    "operacjiĠleÅ¼": 5769,
    "operacjiĠleÅ¼ÄħcychĠ": 5770,
    "319ĠTraktatuĠoĠ": 5771,
    "2ĠzĠdniaĠ25": 5772,
    "(WE,ĠEuratom": 5773,
    "1605": 5774,
    "1605/200": 5775,
    "1605/2002Âł": 5776,
    "Unii,ĠzmieniajÄħceĠ": 5777,
    "223/2014": 5778,
    "223/2014ĠiĠ": 5779,
    "283/2014": 5780,
    "283/2014Ġoraz": 5781,
    "541/2014": 5782,
    "2019/": 5783,
    "ĠRegulamin": 5784,
    "ĠRegulaminuĠiĠz": 5785,
    "aÅĤÄħcznikĠVĠdoĠ": 5786,
    "Regulaminu,": 5787,
    "KontroliĠBudÅ¼etowejĠ": 5788,
    "(A9-00": 5789,
    "rokĠbudÅ¼etowyĠ2018;": 5790,
    "zobowiÄħzujeĠ": 5791,
    "zobowiÄħzujeĠswojegoĠ": 5792,
    "doĠprzekazaniaĠ": 5793,
    "dyrektorowiĠ": 5794,
    "Radzie,Ġ": 5795,
    "orazĠdoĠzarzÄħdzeniaĠ": 5796,
    "jejĠpublikacjiĠ": 5797,
    "jejĠpublikacjiĠwĠ": 5798,
    "Ġ(seriaĠ": 5799,
    "Ġ(seriaĠL": 5800,
    "Ġ(seriaĠL).": 5801,
    "DavidĠMariaĠ": 5802,
    "DavidĠMariaĠSA": 5803,
    "DavidĠMariaĠSASS": 5804,
    "DavidĠMariaĠSASSOLI": 5805,
    "KlausĠWE": 5806,
    "KlausĠWELL": 5807,
    "KlausĠWELLE": 5808,
    "SekretarzĠGeneral": 5809,
    "SekretarzĠGeneralny": 5810,
    "Dz.U.ĠLĠ298ĠzĠ26.": 5811,
    "Dz.U.ĠLĠ193": 5812,
    "Dz.U.ĠLĠ193ĠzĠ30.": 5813,
    "Dz.U.ĠLĠ193ĠzĠ30.7.": 5814,
    "Ġzmien": 5815,
    "BT": 5816,
    "oficjal": 5817,
    "Kategoria:A": 5818,
    "Ġ(pieÅĽÅĦĠ": 5819,
    "gminaĠw": 5820,
    "ĠmiesiÄĻ": 5821,
    "wszystkie": 5822,
    "koÅĤaĠ": 5823,
    "chust": 5824,
    "kiĠwĠ": 5825,
    "strach": 5826,
    "kÃ³j": 5827,
    "jakiegoÅĽ": 5828,
    "pia": 5829,
    "Ã³wĠz": 5830,
    "przej": 5831,
    "luĠ": 5832,
    "bÅĤog": 5833,
    "temuĠ": 5834,
    "kami,Ġ": 5835,
    "jÄħÅĤĠ": 5836,
    "eĠiĠ": 5837,
    "dzisia": 5838,
    "dzÄħ": 5839,
    "ejrz": 5840,
    "wedÅĤug": 5841,
    "chcesz": 5842,
    "Dob": 5843,
    "Å¼egna": 5844,
    "ĠmiaÅĤĠ": 5845,
    "etĠ": 5846,
    "Ta": 5847,
    "ego": 5848,
    "ĠporzÄħd": 5849,
    "nibyĠ": 5850,
    "tyk": 5851,
    "Ġwszel": 5852,
    "obieÅĦstwoĠ": 5853,
    "ĠprzyszÅĤ": 5854,
    "stry": 5855,
    "skal": 5856,
    "opiekiĠ": 5857,
    "War": 5858,
    "wencjiĠ": 5859,
    "dziaÅĤÂł": 5860,
    "nieruchomoÅĽciĠ": 5861,
    "gh": 5862,
    "ĠsprawachĠ": 5863,
    "likwi": 5864,
    "Osob": 5865,
    "aniu": 5866,
    "duka": 5867,
    "Ġtyp": 5868,
    "racjiĠ": 5869,
    "ksiÄħg": 5870,
    "ologicz": 5871,
    "urlopuĠw": 5872,
    "urlopuĠwychowaw": 5873,
    "artystycz": 5874,
    "skup": 5875,
    "ogÃ³": 5876,
    "staura": 5877,
    "najwaÅ¼": 5878,
    "LĠ417/": 5879,
    "ĠwrazĠzĠodpowie": 5880,
    "oÅĽwiadczenieĠwi": 5881,
    "287ĠTraktatuĠoĠ": 5882,
    "(UE)Ġ2019/": 5883,
    "aÂł": 5884,
    "czÅĤonkow": 5885,
    "unij": 5886,
    "nyĠ(": 5887,
    "stnie": 5888,
    "technolog": 5889,
    "II:Ġ": 5890,
    "Inter": 5891,
    "Kategoria:K": 5892,
    "----": 5893,
    "history": 5894,
    "gener": 5895,
    ")ĠâĢĵĠpolskiĠ": 5896,
    "ĠZobaczĠteÅ¼:": 5897,
    "Ġwas": 5898,
    "Pierw": 5899,
    "dziaÅĤemĠ": 5900,
    "Deros": 5901,
    "dzieÄĩ,Ġ": 5902,
    "szedÅĤĠdoĠ": 5903,
    "tarz": 5904,
    "ukaz": 5905,
    "otoĠ": 5906,
    "okrÄħ": 5907,
    "pytaÅĤ": 5908,
    "szczÄĻÅĽli": 5909,
    "naĠnie": 5910,
    "Ġzaraz": 5911,
    "ej,Ġ": 5912,
    "tego,ĠcoĠ": 5913,
    "Ġwszystko": 5914,
    "rÃ³Å¼nych": 5915,
    "stronieĠ": 5916,
    "ÅĽwiÄħ": 5917,
    "czÅĤowieka": 5918,
    "Ro": 5919,
    "aÅĤa,Ġ": 5920,
    "caÅĤegoĠ": 5921,
    "dziÄĩĠ": 5922,
    "ek,Ġ": 5923,
    "jÄħcÄħ": 5924,
    "Ġszero": 5925,
    "wysok": 5926,
    "Ġpowietrze": 5927,
    "Å¼ywie": 5928,
    "kaÅ¼dejĠ": 5929,
    "ĠmusiĠ": 5930,
    "roÅ¼": 5931,
    "byÅĤobyĠ": 5932,
    "ÅĤaĠw": 5933,
    "natural": 5934,
    "szuki": 5935,
    "ckiej": 5936,
    "roni": 5937,
    "ĠpanaĠ": 5938,
    "noÅĽÄĩ,Ġ": 5939,
    "wido": 5940,
    "oczeki": 5941,
    "encieĠ": 5942,
    "rozsze": 5943,
    "Instytu": 5944,
    "ÄħĠoĠ": 5945,
    "ktu": 5946,
    "iÅ¼": 5947,
    "szer": 5948,
    "loz": 5949,
    "bas": 5950,
    "1990Âłr.": 5951,
    "nieĠnie": 5952,
    "ĠzĠdniaĠ18ĠlipcaĠ": 5953,
    "ĠpostÄĻpowaniaĠ": 5954,
    "peÅĤnos": 5955,
    "peÅĤnospraw": 5956,
    "nejĠwĠ": 5957,
    "ObronyĠNarod": 5958,
    "51": 5959,
    "zĠdniaĠ18": 5960,
    "BankĠ": 5961,
    "Funkcjonariusz": 5962,
    "uczelniĠ": 5963,
    "stworzy": 5964,
    "c.": 5965,
    "tempe": 5966,
    "ÅļlÄħ": 5967,
    "koÅĦcoweĠ": 5968,
    "(UE)ĠnrĠ1296": 5969,
    "2016": 5970,
    "0Ġ": 5971,
    "standard": 5972,
    "<<Ġ": 5973,
    "-Com": 5974,
    "aÅĤĠdoĠ": 5975,
    "ĠswojÄħĠ": 5976,
    "wraca": 5977,
    "paniĠ": 5978,
    "niÃ³sÅĤĠ": 5979,
    "nikt": 5980,
    "âĢĶĠCzyĠ": 5981,
    "liĠw": 5982,
    "ĠdrogiĠ": 5983,
    "nionyĠ": 5984,
    "ÅĦskich": 5985,
    "szystkie": 5986,
    "to,ĠcoĠ": 5987,
    "amiĠiĠ": 5988,
    "nocĠ": 5989,
    "oku": 5990,
    "zÅĤowie": 5991,
    "ÅĽwi": 5992,
    "groz": 5993,
    "orzu": 5994,
    ".ĠRoz": 5995,
    "dlategoĠ": 5996,
    "Ġwypowie": 5997,
    ".ĠPierw": 5998,
    "stanowie": 5999,
    "dzÄĻĠ": 6000,
    "to,Ġ": 6001,
    "Post": 6002,
    "Ã³wĠzĠ": 6003,
    "ÅĽmierÄĩ": 6004,
    "czeniuĠ": 6005,
    "podczas": 6006,
    "kazyw": 6007,
    "o-": 6008,
    "wiele": 6009,
    ",ĠjeÅĽliĠ": 6010,
    "prezent": 6011,
    "ord": 6012,
    "Nad": 6013,
    "noszÄħceĠ": 6014,
    "kate": 6015,
    "Ġsiedzi": 6016,
    "ÅĽwiadom": 6017,
    "stosujeĠsiÄĻĠ": 6018,
    "ocjal": 6019,
    "jednoli": 6020,
    "ĠprzyjÄĻ": 6021,
    "okreÅĽla": 6022,
    "ĠSkarbuĠPa": 6023,
    "udziela": 6024,
    "uzasad": 6025,
    "ĠpowinnyĠ": 6026,
    "onomicz": 6027,
    "denty": 6028,
    "A.": 6029,
    "MinisterstwoĠ": 6030,
    "roczneĠsprawozdanieĠ": 6031,
    "noÅĽciÂł": 6032,
    "legalnoÅĽciĠiĠ": 6033,
    "rokĠbudÅ¼etowyĠ2018Ġ(": 6034,
    "(WE,ĠEuratom)ĠnrĠ": 6035,
    "1/2013,Ġ(UE)ĠnrĠ130": 6036,
    "1/2013,Ġ(UE)ĠnrĠ1303": 6037,
    "/2013,Ġ(UE)ĠnrĠ1304": 6038,
    "/2013,Ġ(UE)ĠnrĠ1309": 6039,
    "16/2013,Ġ(UE)ĠnrĠ": 6040,
    "223/2014ĠiĠ(UE)ĠnrĠ": 6041,
    "ĠdecyzjÄĻĠnrĠ": 6042,
    "ĠdecyzjÄĻĠnrĠ541/2014": 6043,
    "arzÄħdzaniaĠ": 6044,
    "Ġtrady": 6045,
    "kilomet": 6046,
    "ĠIm": 6047,
    "ORFĠ": 6048,
    "âĢĿĠnrĠ": 6049,
    "wĠprowincjiĠ": 6050,
    "ĠjestĠwaÅ¼": 6051,
    "rÄĻcz": 6052,
    "ĠsÅĤowaĠ": 6053,
    "codzien": 6054,
    "jakoÅĽ": 6055,
    "czyciel": 6056,
    "uczni": 6057,
    "Ġtwar": 6058,
    "gÅĤowie": 6059,
    "goĠw": 6060,
    "nat": 6061,
    "arzaĠ": 6062,
    "chmu": 6063,
    "c,Ġ": 6064,
    "ĠswegoĠ": 6065,
    "Ġswoim": 6066,
    "niktĠ": 6067,
    "nÃ³": 6068,
    "owanym": 6069,
    "kuch": 6070,
    ".ĠMoÅ¼eĠ": 6071,
    "ÅĤagod": 6072,
    "zapis": 6073,
    "jednÄħ": 6074,
    "chajĠ": 6075,
    "wierzy": 6076,
    "bÄĻdÄĻĠ": 6077,
    "teatral": 6078,
    "uĠnie": 6079,
    "ĠzostaÅĤĠ": 6080,
    "Mon": 6081,
    "ĠmajÄħ": 6082,
    "zwyczaj": 6083,
    "ujÄħcyĠ": 6084,
    "naleÅ¼y": 6085,
    "ĠGdzie": 6086,
    "ĠÅģ": 6087,
    "strzy": 6088,
    "chodziĠwĠ": 6089,
    "ĠsamorzÄħd": 6090,
    "naĠpodstawie": 6091,
    "Ġlub": 6092,
    "ĠRozdziaÅĤÂł": 6093,
    "stopie": 6094,
    "opini": 6095,
    "szczeniaĠ": 6096,
    "Ã³wĠ(": 6097,
    "obron": 6098,
    "nym.": 6099,
    "62": 6100,
    "artoÅĽciĠ": 6101,
    "ÅĦskiego": 6102,
    "cykl": 6103,
    "Ã³wĠiĠwy": 6104,
    "uĠichĠpodstaw": 6105,
    "JakoĠ": 6106,
    "m.in.Ġ": 6107,
    "nes": 6108,
    "wschod": 6109,
    "gc": 6110,
    "ĠpieÅĽniĠ": 6111,
    "ĠpowiecieĠ": 6112,
    "ĠOpis:ĠoĠ": 6113,
    "usie": 6114,
    ",ĠktÃ³rÄħ": 6115,
    ".ĠAle": 6116,
    "zobaczy": 6117,
    "obieĠ": 6118,
    "sÅĤowa": 6119,
    ".ĠIĠ": 6120,
    "Ġwielu": 6121,
    "caÅĤejĠ": 6122,
    "nieĠjak": 6123,
    "KtÃ³r": 6124,
    "rowadzi": 6125,
    "gaze": 6126,
    "okrop": 6127,
    "opart": 6128,
    "ogie": 6129,
    "powiadaĠ": 6130,
    "dalekoĠ": 6131,
    "nadzwyczaj": 6132,
    "mi,Ġ": 6133,
    "spani": 6134,
    "nieĠmoÅ¼naĠ": 6135,
    "nikÃ³w,Ġ": 6136,
    "gene": 6137,
    "wy,Ġ": 6138,
    "ÅĤaĠwĠ": 6139,
    "chociaÅ¼": 6140,
    "Noc": 6141,
    "Ġtry": 6142,
    "cjach": 6143,
    "bit": 6144,
    "kochan": 6145,
    "Ki": 6146,
    "wiÄĻcĠ": 6147,
    "zatrud": 6148,
    "UrzÄĻduĠ": 6149,
    "jek": 6150,
    "jednostek": 6151,
    "obsz": 6152,
    "Fundusz": 6153,
    "udostÄĻp": 6154,
    "samorzÄħd": 6155,
    "komunik": 6156,
    "obwod": 6157,
    "ĠSprawĠWewnÄĻtrz": 6158,
    ")ĠzaĠ": 6159,
    "ĠrozporzÄħdzeniaĠ": 6160,
    "awar": 6161,
    "proces": 6162,
    "Arty": 6163,
    "rzeÅĽci": 6164,
    "PaweÅĤ": 6165,
    "sÅĤawaĠ": 6166,
    "arygodnoÅĽciÂł": 6167,
    "niniejszejĠdecyzjiĠ": 6168,
    "Radzie,ĠKomisjiĠ": 6169,
    "Radzie,ĠKomisjiĠiĠ": 6170,
    "ObrachunkowemuĠ": 6171,
    "2005": 6172,
    "ĠĠĠĠĠĠĠĠ": 6173,
    "âĢĵ18": 6174,
    "ĠwyÅĽwiet": 6175,
    "Oper": 6176,
    "tÅĤum": 6177,
    "drz": 6178,
    "mÃ³j": 6179,
    "syÅĤ": 6180,
    "pieĠ": 6181,
    "âĢĶĠC": 6182,
    "Ġple": 6183,
    "pelu": 6184,
    "paÅĤ": 6185,
    "by,Ġ": 6186,
    "rzuc": 6187,
    "gal": 6188,
    "gniew": 6189,
    "Ġmam": 6190,
    "jÄħcÄħĠ": 6191,
    "ajĠ": 6192,
    "zedÅĤ": 6193,
    "zamie": 6194,
    "bÄĻdziesz": 6195,
    "grafi": 6196,
    "nikiem": 6197,
    "chciaÅĤĠ": 6198,
    "han": 6199,
    "ĠwyjÄħ": 6200,
    "bija": 6201,
    "jednymĠzĠ": 6202,
    "lenieĠ": 6203,
    "niewy": 6204,
    "koniecĠ": 6205,
    "nychĠwĠ": 6206,
    "ĠpuÅĤkow": 6207,
    "szÅĤoĠdoĠ": 6208,
    ".ĠH": 6209,
    "âĢĶĠz": 6210,
    "Å¼enieĠ": 6211,
    "rzekiĠ": 6212,
    "ÅĦskim": 6213,
    "gwiazd": 6214,
    "Tam": 6215,
    "Ġpowierzch": 6216,
    "87": 6217,
    ")ĠorazĠ": 6218,
    "odĠdniaĠ": 6219,
    "niu:": 6220,
    "Ġpodmiot": 6221,
    "Ġzmian": 6222,
    "ny,": 6223,
    "ĠprzepisÃ³w": 6224,
    "ĠwyÅĤÄħcz": 6225,
    "ĠlubĠ": 6226,
    "spon": 6227,
    "obowiÄħza": 6228,
    "Sej": 6229,
    "nowych": 6230,
    "undacjaĠ": 6231,
    "92": 6232,
    "paÅĦstwowej": 6233,
    "iasta": 6234,
    "ÅĤ.": 6235,
    "gip": 6236,
    "nieĠRadyĠ": 6237,
    "nieĠlotnicze": 6238,
    "neĠosobyĠ": 6239,
    "owanie:Ġ": 6240,
    "plex": 6241,
    "Kategoria:O": 6242,
    "ĠtuĠstacjaĠkolejowa.": 6243,
    "cztere": 6244,
    "otworzy": 6245,
    "onyĠwĠ": 6246,
    "kolwiekĠ": 6247,
    "eĠm": 6248,
    "Karol": 6249,
    "goĠdoĠ": 6250,
    "postÄĻp": 6251,
    "yl": 6252,
    "nocy": 6253,
    "ober": 6254,
    "szczÄĻÅĽcie": 6255,
    "prosi": 6256,
    "ciÃ³ÅĤ": 6257,
    "ÅĤask": 6258,
    "far": 6259,
    ",Ġale": 6260,
    "ojca,Ġ": 6261,
    "Corett": 6262,
    "ĠtrzebaĠ": 6263,
    "iĠdoĠ": 6264,
    "emĠiĠ": 6265,
    "poz": 6266,
    "aÅĤy": 6267,
    "ĠmoÅ¼": 6268,
    "ens": 6269,
    "ÅĽÄĩĠdoĠ": 6270,
    "jeĠnaĠ": 6271,
    "Ġtut": 6272,
    ".ĠTy": 6273,
    ".ĠTo": 6274,
    "szpital": 6275,
    ".ĠOb": 6276,
    "pla": 6277,
    "ĠtysiÄĻcyĠ": 6278,
    "jecha": 6279,
    "For": 6280,
    "nowychĠ": 6281,
    "aÅĤaĠsiÄĻ": 6282,
    "ĠzaleÅ¼": 6283,
    "Ġzg": 6284,
    "klimat": 6285,
    "formie": 6286,
    "wiÄĻksze": 6287,
    "RadaĠ": 6288,
    "oĠcharakte": 6289,
    "ĠprzedsiÄĻbior": 6290,
    "ki,": 6291,
    "wnio": 6292,
    "bawieniaĠ": 6293,
    "uchwaÅĤ": 6294,
    "skutecz": 6295,
    "KomendantaĠ": 6296,
    "angiel": 6297,
    "hol": 6298,
    "jaÅĽ": 6299,
    "ĠKomis": 6300,
    "oruĠ": 6301,
    "pidÃ³w": 6302,
    "cjiÂł": 6303,
    "ĠprzedÅĤoÅ¼oneĠprzezĠ": 6304,
    "ĠzalecenieĠRadyĠ": 6305,
    "zĠdniaĠ18ĠlutegoĠ": 6306,
    "tencjal": 6307,
    "Ġmobil": 6308,
    "frag": 6309,
    "omaĠ": 6310,
    "ĠmegoĠ": 6311,
    "dzisie": 6312,
    "dzisiej": 6313,
    "miejscu": 6314,
    "ciÄħga": 6315,
    "koju": 6316,
    "rÅ¼": 6317,
    "ĠponadĠ": 6318,
    "ChÅĤ": 6319,
    "Amery": 6320,
    "gimĠ": 6321,
    "ĠzaczÄĻ": 6322,
    "pieniÄĻ": 6323,
    "wszystkichĠ": 6324,
    "ĠzawszeĠ": 6325,
    "jego": 6326,
    "sparciaĠ": 6327,
    "ĠswoimĠ": 6328,
    "spojrz": 6329,
    "mart": 6330,
    "a,ĠktÃ³ryĠ": 6331,
    "ĠnieĠ": 6332,
    "coĠdoĠ": 6333,
    "gl": 6334,
    "neĠw": 6335,
    "siÄĻĠodĠ": 6336,
    "âĢĿĠiĠ": 6337,
    ",ĠgdyÅ¼": 6338,
    "ÄĻ,ĠÅ¼eĠ": 6339,
    "boÅ¼": 6340,
    "woÅĤu": 6341,
    "bieraĠ": 6342,
    "wa,Ġ": 6343,
    "aneĠwĠ": 6344,
    "oglÄħd": 6345,
    "wanieĠ": 6346,
    "uÅĤat": 6347,
    "faÅĤ": 6348,
    "czeĠ": 6349,
    "Ġprzeci": 6350,
    "odda": 6351,
    "woz": 6352,
    "rozpozna": 6353,
    ",ĠgdyÅ¼Ġ": 6354,
    "dalejĠ": 6355,
    "ĠpaÅĦstwa": 6356,
    "ome": 6357,
    "ÅĤaÅĦcuch": 6358,
    ",ĠJ": 6359,
    "6)": 6360,
    "bieÅ¼": 6361,
    "moÅ¼liwoÅĽciĠ": 6362,
    "opiniiĠ": 6363,
    "central": 6364,
    "ustawaĠ": 6365,
    "Ġwarunk": 6366,
    "religij": 6367,
    "telewizyj": 6368,
    "Warszawie": 6369,
    "ĠwartoÅĽciĠ": 6370,
    "liczbÄĻ": 6371,
    "10Ġ": 6372,
    "ruchu": 6373,
    "Ġkm": 6374,
    ",ĠK": 6375,
    "struktu": 6376,
    "nika.": 6377,
    ".ĠDlategoĠ": 6378,
    "obserw": 6379,
    "restaura": 6380,
    ".ĠObec": 6381,
    "np.": 6382,
    "2020Ġr.ĠwĠsprawie": 6383,
    "Rumu": 6384,
    "arÃ³wnoĠ": 6385,
    "sekwencjiĠ": 6386,
    "rower": 6387,
    "apli": 6388,
    "Wikipe": 6389,
    "Ã¶l": 6390,
    "biaÅĤkaĠ": 6391,
    "Cyber-Com": 6392,
    "Cyber-Complex": 6393,
    "ĠPor": 6394,
    ":00-": 6395,
    "awsze": 6396,
    "si,Ġ": 6397,
    "jedenĠzĠ": 6398,
    "sÅĤych": 6399,
    "ktÃ³rÄħ": 6400,
    "czyk": 6401,
    ".ĠTen": 6402,
    "Ġtrzy": 6403,
    "gdybyĠ": 6404,
    "iĠu": 6405,
    "stanie": 6406,
    "Ġwin": 6407,
    "dymĠ": 6408,
    "ĠmiaÅĤaĠ": 6409,
    "caÅĤÄħ": 6410,
    "kobietaĠ": 6411,
    "Ale": 6412,
    "reszcieĠ": 6413,
    "ÅĽlicz": 6414,
    "stronÄĻ": 6415,
    "ÅĤaĠnaĠ": 6416,
    "âĢĶĠTak": 6417,
    "mÃ³wiÅĤ": 6418,
    "Äħs": 6419,
    "osÅĤaw": 6420,
    "uz": 6421,
    "JakĠ": 6422,
    "ff": 6423,
    "gle": 6424,
    "ywaniaĠ": 6425,
    ".ĠKiedyĠ": 6426,
    "rzuca": 6427,
    "ĠmiesiÄĻcyĠ": 6428,
    "ktoraĠ": 6429,
    "zej": 6430,
    "bytĠ": 6431,
    "przyszÅĤ": 6432,
    "Pos": 6433,
    "nyĠzĠ": 6434,
    "nowoĠ": 6435,
    "bab": 6436,
    "Ġsym": 6437,
    "alnegoĠ": 6438,
    "gÃ³l": 6439,
    "Me": 6440,
    "am,ĠÅ¼eĠ": 6441,
    "con": 6442,
    "WĠtymĠ": 6443,
    "alneĠ": 6444,
    "ZakÅĤad": 6445,
    ".ĠJeÅ¼eliĠ": 6446,
    "kieru": 6447,
    "oskar": 6448,
    "Transpor": 6449,
    "t.Ġ": 6450,
    "test": 6451,
    "czemuĠ": 6452,
    "Neu": 6453,
    "ÅĦskieĠ": 6454,
    "ĠrachunkÃ³w": 6455,
    "0576": 6456,
    "TraktatuĠ": 6457,
    "AN": 6458,
    "scenari": 6459,
    "skus": 6460,
    "ProkuraturyĠ": 6461,
    "ĉĉ": 6462,
    "rip": 6463,
    "Archi": 6464,
    ":Ġ+": 6465,
    "ĠGdzieĠdalejĠ": 6466,
    "ĠRp": 6467,
    "owaÄĩ,Ġ": 6468,
    "âĢĶĠN": 6469,
    "kÄĻĠiĠ": 6470,
    "robiÄĩ": 6471,
    "fini": 6472,
    "gÅĤosemĠ": 6473,
    "âĢĶĠmÃ³wi": 6474,
    "dzieliĠ": 6475,
    "wieczor": 6476,
    "rabi": 6477,
    "Ġdru": 6478,
    "aÅĤyĠsiÄĻĠ": 6479,
    "bÄĻdziemyĠ": 6480,
    "rost": 6481,
    "Ġper": 6482,
    "ĠâĢŀ": 6483,
    "Ġme": 6484,
    "spa": 6485,
    "naprz": 6486,
    "dzieli": 6487,
    "skak": 6488,
    "ĠswoichĠ": 6489,
    "onychĠwĠ": 6490,
    "âĢĶĠNieĠ": 6491,
    "go,ĠÅ¼eĠ": 6492,
    "zÅĤot": 6493,
    "obokĠ": 6494,
    "âĢĶĠw": 6495,
    "Jeszcze": 6496,
    "nowe": 6497,
    "punkt": 6498,
    "zwÅĤo": 6499,
    "pomina": 6500,
    "ÅĽwiatĠ": 6501,
    "ÄĻĠoĠ": 6502,
    "Ġpublicz": 6503,
    "narzÄĻ": 6504,
    "wodz": 6505,
    ".ĠDlaĠ": 6506,
    "y,ĠktÃ³reĠ": 6507,
    "cja,Ġ": 6508,
    "doktora": 6509,
    "gryĠ": 6510,
    "rodzie": 6511,
    "onÃ³w": 6512,
    "strumie": 6513,
    "zmia": 6514,
    "chodziĠwĠÅ¼ycie": 6515,
    "nagrodzeniaĠ": 6516,
    "inwesty": 6517,
    "stanowiskoĠ": 6518,
    "owe.": 6519,
    "okreÅĽli": 6520,
    "elektro": 6521,
    "MinisterstwaĠ": 6522,
    "63": 6523,
    "transportu": 6524,
    "otycz": 6525,
    "ciÄħÅ¼Ġ": 6526,
    "yj": 6527,
    "2013Ġr.ĠwĠsprawie": 6528,
    "Dz.U.ĠLĠ3": 6529,
    "Czar": 6530,
    "ĠRe": 6531,
    "zestawie": 6532,
    "string": 6533,
    "filoz": 6534,
    "âĢ¦)": 6535,
    "Ã¤": 6536,
    "randen": 6537,
    "iha": 6538,
    "aktorkiĠ": 6539,
    "cis": 6540,
    "ym,Ġ": 6541,
    "jÄħcĠsiÄĻĠ": 6542,
    "chÄĻt": 6543,
    "aÅĤĠiĠ": 6544,
    "mamyĠ": 6545,
    "âĢĶĠrzekÅĤĠ": 6546,
    "dÄħ": 6547,
    "ÄħcĠnaĠ": 6548,
    "Ġwiecz": 6549,
    "czyÅĤyĠ": 6550,
    "wieluĠ": 6551,
    "bierze": 6552,
    "ciÅĤĠ": 6553,
    "gÅĤowÄĻ": 6554,
    "Niech": 6555,
    "ĠsiÄĻĠzĠ": 6556,
    "pomi": 6557,
    "kÄĻ,Ġ": 6558,
    "niena": 6559,
    "odm": 6560,
    "umiera": 6561,
    "nyĠdoĠ": 6562,
    "obod": 6563,
    ",ĠgdybyĠ": 6564,
    "kien": 6565,
    "odwag": 6566,
    "otwiera": 6567,
    "ÅĽpi": 6568,
    "wszystkich": 6569,
    "skoÅĦcz": 6570,
    "nowu": 6571,
    "niaĠzĠ": 6572,
    "sur": 6573,
    "jÄħĠdoĠ": 6574,
    "kaÅ¼daĠ": 6575,
    "niepo": 6576,
    "toĠw": 6577,
    "pracy": 6578,
    "karze": 6579,
    "gorÄħcz": 6580,
    "asy": 6581,
    "grupyĠ": 6582,
    "baj": 6583,
    "pyĠ": 6584,
    ",ĠP": 6585,
    ",ĠiÅ¼": 6586,
    "Miast": 6587,
    "Ġpreze": 6588,
    "ver": 6589,
    "jednostekĠ": 6590,
    "kcyj": 6591,
    "Ġdotychczas": 6592,
    "Ġprzypadku": 6593,
    "orzÄħdz": 6594,
    "Gospodar": 6595,
    "ĠwystÄħpie": 6596,
    "indywidu": 6597,
    "oÅĤu": 6598,
    "dziedzinieĠ": 6599,
    "ordy": 6600,
    "Ġtele": 6601,
    "dokona": 6602,
    "OW": 6603,
    ".ĠLi": 6604,
    "stref": 6605,
    "Ġzatrud": 6606,
    "stosowaniaĠ": 6607,
    "czasuĠpracyĠ": 6608,
    "yg": 6609,
    "August": 6610,
    "ĠzĠ7.": 6611,
    "UniiĠEuropejskiejĠds": 6612,
    "trans": 6613,
    "regionalneĠ": 6614,
    "zÂł": 6615,
    "temperatu": 6616,
    "NewĠ": 6617,
    "ZnaneĠosobyĠ": 6618,
    "âĶĢâĶĢ": 6619,
    "âĢĵĠmiejscow": 6620,
    "gminaĠweĠ": 6621,
    "cieszy": 6622,
    ";ĠaĠ": 6623,
    "rÄĻkÄĻĠ": 6624,
    "moje": 6625,
    "wÅĤad": 6626,
    "zmier": 6627,
    "takiegoĠ": 6628,
    "ostatnichĠ": 6629,
    "ĠtyleĠ": 6630,
    "aĠza": 6631,
    "ĠsiÅĤyĠ": 6632,
    "czÄħst": 6633,
    "cÃ³Å¼": 6634,
    "nii,Ġ": 6635,
    "ĠpowiedzieÄĩ": 6636,
    "mĠw": 6637,
    "naĠza": 6638,
    "niejszaĠ": 6639,
    "dÄĻ": 6640,
    "samegoĠ": 6641,
    "goÅĽci": 6642,
    "inniĠ": 6643,
    "ciÄĩĠ": 6644,
    "rzaĠ": 6645,
    "ciebieĠ": 6646,
    "cierpie": 6647,
    "nemuĠ": 6648,
    "Ġwymieni": 6649,
    "rzeb": 6650,
    "naĠprze": 6651,
    "ÅĦskimĠ": 6652,
    "jÄħĠwĠ": 6653,
    "kolwiek": 6654,
    "Ġwyobra": 6655,
    "Å¼eniemĠ": 6656,
    "nieniemĠ": 6657,
    "miastoĠ": 6658,
    "znaleÅº": 6659,
    "puÅĤ": 6660,
    "ograni": 6661,
    "jesteÅĽmyĠ": 6662,
    "aÅ¼er": 6663,
    "ĠzarzÄħd": 6664,
    "ĠwÅĤaÅĽciw": 6665,
    "ĠmoÅ¼liwoÅĽciĠ": 6666,
    "yĠ(": 6667,
    "Komite": 6668,
    "starcza": 6669,
    "SÄħd": 6670,
    "inicjatyw": 6671,
    "ocenyĠ": 6672,
    "telekomunika": 6673,
    "ĠwĠÂ§Ġ": 6674,
    "placÃ³w": 6675,
    "ĠwynikuĠ": 6676,
    "dowod": 6677,
    "kuĠzĠ": 6678,
    ".ĠBez": 6679,
    "atom": 6680,
    "(E": 6681,
    "WrocÅĤaw": 6682,
    "prokurator": 6683,
    "apa": 6684,
    "SD": 6685,
    "Sc": 6686,
    "filmyĠ": 6687,
    "Kategoria:Pra": 6688,
    "Jam": 6689,
    "aktorzyĠ": 6690,
    "Hav": 6691,
    "siÄħÅ¼": 6692,
    "siÄħce": 6693,
    ".ĠByÅĤ": 6694,
    "Ġsmut": 6695,
    "czonyĠ": 6696,
    "chÅĤopak": 6697,
    "ÄħcÄħ": 6698,
    "chÅĤopiec": 6699,
    "pokoju": 6700,
    ".ĠWtedyĠ": 6701,
    "czwar": 6702,
    "Ġwieczor": 6703,
    "mieliĠ": 6704,
    "ĠpodrÃ³Å¼": 6705,
    "kupi": 6706,
    "La": 6707,
    "ĠdokÅĤad": 6708,
    "niĠiĠ": 6709,
    "gÅĤÄĻbo": 6710,
    "tÃ³rzy": 6711,
    "ĠzwrÃ³ci": 6712,
    "ÅĤaÅĽ": 6713,
    "!ĠO": 6714,
    "mÄĻÅ¼czyz": 6715,
    ".ĠCoĠ": 6716,
    "ostrze": 6717,
    "choÄĩbyĠ": 6718,
    "biÃ³r": 6719,
    "siÄĻ,Ġ": 6720,
    "aÅĤy,Ġ": 6721,
    "bach": 6722,
    "strzegÅĤ": 6723,
    "grz": 6724,
    "ĠprÃ³b": 6725,
    "myÅĽle": 6726,
    "rium": 6727,
    "Ġpla": 6728,
    "Pot": 6729,
    "charak": 6730,
    "charakter": 6731,
    "cieÅĦ": 6732,
    "siedz": 6733,
    "doĠwy": 6734,
    "stÄĻ": 6735,
    "Ġspecjal": 6736,
    "zaÅĤ": 6737,
    "ksztaÅĤt": 6738,
    "rozwojuĠ": 6739,
    "ogÅĤosze": 6740,
    "ÅĦskichĠ": 6741,
    "sÅĤusz": 6742,
    "niczych": 6743,
    "ock": 6744,
    "niem.": 6745,
    "ĠspÃ³ÅĤ": 6746,
    "uposa": 6747,
    "ktÃ³rejĠmowaĠwĠ": 6748,
    "kracza": 6749,
    "tu.": 6750,
    "1ĠiĠ": 6751,
    "Kodek": 6752,
    "orazĠw": 6753,
    "posiada": 6754,
    "4,Ġ": 6755,
    "budowyĠ": 6756,
    "operator": 6757,
    "ĠwÅĤasnoÅĽÄĩ": 6758,
    "tj": 6759,
    "ĠwiÄĻkszoÅĽciĠ": 6760,
    "grun": 6761,
    "niÄĻĠ": 6762,
    "ĠStraÅ¼yĠGranicz": 6763,
    "nianiaĠ": 6764,
    "rodzajuĠ": 6765,
    "arzut": 6766,
    "Ġposie": 6767,
    "kli": 6768,
    "ra.": 6769,
    "kuren": 6770,
    "skor": 6771,
    "12.2013": 6772,
    "2ĠzĠ": 6773,
    "Ir": 6774,
    ");": 6775,
    "Ġdek": 6776,
    "ind": 6777,
    "âĢ¦)Ġ": 6778,
    "RP": 6779,
    "wersyj": 6780,
    "eĠ=Ġ": 6781,
    "rida": 6782,
    "Âµ": 6783,
    "ZobaczĠteÅ¼:": 6784,
    "ĠImpre": 6785,
    "ĠImprezyĠ": 6786,
    "ÅĽÄĩ,Ġ": 6787,
    "niektÃ³reĠ": 6788,
    "obojÄĻt": 6789,
    "Ko": 6790,
    "bliÅ¼ej": 6791,
    "ĠwziÄħ": 6792,
    "Ġwyzna": 6793,
    "dzy": 6794,
    "zywaĠ": 6795,
    "sprzeda": 6796,
    "urodzi": 6797,
    "pÃ³j": 6798,
    "ĠzostaÅĤaĠ": 6799,
    "masz": 6800,
    "spomni": 6801,
    "nij": 6802,
    "nymĠiĠ": 6803,
    "zĠtegoĠ": 6804,
    ",ĠnieĠ": 6805,
    "wĠpo": 6806,
    ".ĠDzi": 6807,
    "Ġto,Ġ": 6808,
    "ÅĤ,ĠÅ¼eĠ": 6809,
    "bÄĻĠ": 6810,
    "jestĠwĠ": 6811,
    "wiej": 6812,
    "stÃ³": 6813,
    ".ĠSpo": 6814,
    "oweĠiĠ": 6815,
    "niec": 6816,
    "gent": 6817,
    "inaczej": 6818,
    "ruchuĠ": 6819,
    "kwad": 6820,
    "KsiÄĻ": 6821,
    "bogat": 6822,
    "Å¼Ã³ÅĤ": 6823,
    "orzaĠ": 6824,
    "Äħdro": 6825,
    "przedstawiaĠ": 6826,
    "kapitan": 6827,
    "wew": 6828,
    "ujrz": 6829,
    "Ã³dz": 6830,
    ".ĠWĠtymĠ": 6831,
    "jÄĻcie": 6832,
    "sied": 6833,
    ",ĠzwÅĤaszcz": 6834,
    "swoje": 6835,
    "uzykaĠ": 6836,
    "tyczne": 6837,
    "mot": 6838,
    "cjiĠiĠ": 6839,
    "miasta": 6840,
    "Kraj": 6841,
    "jÄĻzykaĠ": 6842,
    "ukoÅĦ": 6843,
    "ÅĤadzie": 6844,
    "puszcz": 6845,
    "ust.Ġ2": 6846,
    "ĠzĠdniemĠ": 6847,
    "koÅĦc": 6848,
    "Ġzastrze": 6849,
    "na,": 6850,
    "88": 6851,
    "Art.Âł5": 6852,
    "czychĠ": 6853,
    "ĠRze": 6854,
    "okrot": 6855,
    "09": 6856,
    "Äĺ": 6857,
    "715": 6858,
    "zajm": 6859,
    "czeÅĽniejĠ": 6860,
    "konty": 6861,
    "gi.": 6862,
    "ĠzĠdniaĠ30": 6863,
    "formuÅĤ": 6864,
    "opubli": 6865,
    "ÅĤa,": 6866,
    "obecnieĠ": 6867,
    "terna": 6868,
    "ksiÄħgĠdochod": 6869,
    "ksiÄħgĠdochodÃ³wĠiĠwy": 6870,
    "ĠPar": 6871,
    ",ĠE": 6872,
    "alnyĠ": 6873,
    "rekonwersyj": 6874,
    "staroÅ¼yt": 6875,
    "Iran": 6876,
    ",Ġ,Ġ": 6877,
    "dzisÅĤaw": 6878,
    "SÅĤoÅĦ": 6879,
    "portĠlotniczyĠ": 6880,
    "Å¼eÅĦskie": 6881,
    "Heniu": 6882,
    "yĠofer": 6883,
    "Powie": 6884,
    "Ġwych": 6885,
    "iÄĩĠ": 6886,
    "szek": 6887,
    "ĠwÅĤos": 6888,
    "Ġdrz": 6889,
    "jaka": 6890,
    "naĠjegoĠ": 6891,
    "siad": 6892,
    "staÅĤoĠ": 6893,
    "latach": 6894,
    "jezi": 6895,
    "toĠpo": 6896,
    "olet": 6897,
    "ba,Ġ": 6898,
    "ramiona": 6899,
    "ranoĠ": 6900,
    "nie!": 6901,
    "drob": 6902,
    "Å¼ycia": 6903,
    "Ġwidzi": 6904,
    "odpowiedÅº": 6905,
    "tĠiĠ": 6906,
    "ĠprogramĠ": 6907,
    "muĠsiÄĻĠ": 6908,
    "jakÄħÅĽ": 6909,
    "anu": 6910,
    "oficer": 6911,
    "rzyst": 6912,
    "ĠpoczÄħ": 6913,
    "zwycza": 6914,
    "rowadz": 6915,
    "czkiĠ": 6916,
    "nione": 6917,
    "cale": 6918,
    "krÃ³laĠ": 6919,
    "nymi,Ġ": 6920,
    "ÅĽciaĠ": 6921,
    "zon": 6922,
    "gnÄĻ": 6923,
    "ryce": 6924,
    "obliÅ¼uĠ": 6925,
    "Ġtr": 6926,
    "kowychĠ": 6927,
    "krÄĻg": 6928,
    "pracÄĻ": 6929,
    "ajÄħcyĠ": 6930,
    "Ol": 6931,
    "nienie": 6932,
    "wÃ³rĠ": 6933,
    "obaw": 6934,
    "ulat": 6935,
    "ĠpaÅĦstwoĠ": 6936,
    "73": 6937,
    "stanowiÄħcych": 6938,
    "reprezen": 6939,
    "ludnoÅĽciĠ": 6940,
    "Äħtpliw": 6941,
    "analiz": 6942,
    "niÅ¼szejĠ": 6943,
    "Art.Âł4": 6944,
    "systemuĠ": 6945,
    "OG": 6946,
    "czest": 6947,
    "prop": 6948,
    "Och": 6949,
    "akad": 6950,
    "czoÅĽciĠ": 6951,
    "Ġposiedze": 6952,
    "...Ġ": 6953,
    "grzech": 6954,
    "rzeÅĽcija": 6955,
    "hy": 6956,
    "ĠCh": 6957,
    "Izra": 6958,
    "IN": 6959,
    "rokĠbudÅ¼etowyĠ2018,": 6960,
    "/2020ĠâĢĵĠC9-00": 6961,
    "ÄĩÂł": 6962,
    "onad": 6963,
    "literatu": 6964,
    "Ġ0": 6965,
    "ekra": 6966,
    "ĠSu": 6967,
    "virida": 6968,
    "automatycznieĠwy": 6969,
    "GeneĠ": 6970,
    "2026)": 6971,
    "imieninyĠobchodzi": 6972,
    "ĠÅ¹rÃ³dÅĤo:Ġod": 6973,
    "pÃ³Åºniej": 6974,
    "kaĠz": 6975,
    "aÄĩ,Ġ": 6976,
    "kach,Ġ": 6977,
    "!ĠA": 6978,
    ".ĠNi": 6979,
    "swoimĠ": 6980,
    "Ġpatrzy": 6981,
    "naszej": 6982,
    "lin": 6983,
    "okrzy": 6984,
    "chÅĤopcaĠ": 6985,
    "iegoĠ": 6986,
    "ĠmyĠ": 6987,
    "bliÅ¼y": 6988,
    "nowegoĠ": 6989,
    "kapelu": 6990,
    "kiesze": 6991,
    "Ġspad": 6992,
    ",ĠjakieĠ": 6993,
    "serceĠ": 6994,
    "siÄĻĠpo": 6995,
    "jach": 6996,
    "tru": 6997,
    "oÅĤÃ³w": 6998,
    "Ġmusz": 6999,
    "âĢĿ,ĠâĢŀ": 7000,
    "lara": 7001,
    "Å¼yje": 7002,
    "stÃ³p": 7003,
    "ciaÅĤoĠ": 7004,
    "rzÄħdz": 7005,
    "?ĠW": 7006,
    "ÅĽpiewa": 7007,
    "dzialeĠ": 7008,
    "ÅĽwiatÅĤoĠ": 7009,
    "dowie": 7010,
    "dobre": 7011,
    "likat": 7012,
    "Ġpon": 7013,
    "stwĠ": 7014,
    "Ġroz": 7015,
    "gie": 7016,
    ",Ġwz": 7017,
    "Ġwier": 7018,
    "ĠwewnÄĻtrz": 7019,
    "negoĠiĠ": 7020,
    "Ġdoty": 7021,
    "miaÅĤyĠ": 7022,
    ",ĠaĠtakÅ¼e": 7023,
    "poczÄħ": 7024,
    "spowod": 7025,
    "powiedzi": 7026,
    "ii,Ġ": 7027,
    "nieĠodĠ": 7028,
    "rent": 7029,
    "6Ġ": 7030,
    "naĠtere": 7031,
    "niezaleÅ¼": 7032,
    "Ġwykonywa": 7033,
    "94": 7034,
    "(w": 7035,
    "ĠsieciĠ": 7036,
    "woju": 7037,
    "dokument": 7038,
    "terytorial": 7039,
    "bezpÅĤat": 7040,
    "5,Ġ": 7041,
    "owoÅĽci": 7042,
    "odcin": 7043,
    "ĠzaÅĤÄħcz": 7044,
    "Stan": 7045,
    "Ġuwag": 7046,
    "ckich": 7047,
    "ygmun": 7048,
    "nowa": 7049,
    "ÄĦ": 7050,
    "UEĠzaĠ": 7051,
    "L_2020417PL.010": 7052,
    "integral": 7053,
    "Bel": 7054,
    "UniiĠEuropejskiejĠ": 7055,
    "systemĠ": 7056,
    "Car": 7057,
    "zyli": 7058,
    "XIX": 7059,
    "ck": 7060,
    "ageĠ": 7061,
    "odow": 7062,
    "DNA": 7063,
    "ĠToĠzestawie": 7064,
    "walne": 7065,
    "Dol": 7066,
    "szcza": 7067,
    "straÅ¼": 7068,
    "Ġzobaczy": 7069,
    "ciaÅ¼Ġ": 7070,
    "czegoÅĽ": 7071,
    "nim,Ġ": 7072,
    "ciÅĤaĠ": 7073,
    "dzieckoĠ": 7074,
    "ĠsiÄĻ,Ġ": 7075,
    "!ĠâĢĶĠzawoÅĤ": 7076,
    "czem": 7077,
    "ĠSch": 7078,
    "ĠwidziaÅĤ": 7079,
    "ÄħÅ¼Ġ": 7080,
    "Äĩwi": 7081,
    "Ġdomu": 7082,
    "ÅĦskiego,Ġ": 7083,
    "leÅĽ": 7084,
    "siÄħceĠ": 7085,
    ",Ġwym": 7086,
    "rzeÄĩ": 7087,
    "jÄħÅĤ": 7088,
    "ledwie": 7089,
    "niÅĤ": 7090,
    "cznÄħ": 7091,
    "tkiĠ": 7092,
    "leĠiĠ": 7093,
    "rozmowaĠ": 7094,
    "ÅĽmierÄĩĠ": 7095,
    "ĠwzglÄĻdemĠ": 7096,
    "nikamiĠ": 7097,
    "Ze": 7098,
    "kr": 7099,
    "ckaĠ": 7100,
    "Ġponad": 7101,
    "ÄĻze": 7102,
    "Å¼ywi": 7103,
    "Ġprost": 7104,
    "jÄħÄĩ": 7105,
    ".ĠZaĠ": 7106,
    "Ġdoskona": 7107,
    "ctwaĠ": 7108,
    "jamĠ": 7109,
    "ÄħcÄħĠ": 7110,
    "obywatel": 7111,
    "jazdyĠ": 7112,
    "brzeg": 7113,
    "ĠprÃ³": 7114,
    "jÄĻcieĠ": 7115,
    "przeprowadz": 7116,
    "ustawy": 7117,
    "orga": 7118,
    "termina": 7119,
    "decyzjiĠ": 7120,
    "cjon": 7121,
    "realiza": 7122,
    "publicznej": 7123,
    "rejon": 7124,
    "Ġwykorzysta": 7125,
    "Ġzatrudni": 7126,
    "hom": 7127,
    "ĠuÅ¼y": 7128,
    "ient": 7129,
    "kÃ³w.": 7130,
    "e.": 7131,
    "Ġpodpis": 7132,
    "akademi": 7133,
    "faĠ": 7134,
    "Ġmln": 7135,
    "poÅĤÄħ": 7136,
    "rynku": 7137,
    "siÄħdz": 7138,
    "zwykleĠ": 7139,
    "Polak": 7140,
    "Har": 7141,
    "2017": 7142,
    "owegoĠdotyczÄħceĠ": 7143,
    "ON": 7144,
    "AbyĠ": 7145,
    "sor": 7146,
    "internet": 7147,
    "kompu": 7148,
    "gastronomicz": 7149,
    "ĠV": 7150,
    "0)": 7151,
    "input": 7152,
    "std": 7153,
    "::": 7154,
    "GeneĠBankĠ": 7155,
    "schÃ³dĠ": 7156,
    "imiÄĻĠÅ¼eÅĦskie": 7157,
    "Neuia": 7158,
    "klasyĠ": 7159,
    "ĠpomyÅĽl": 7160,
    "nowyĠ": 7161,
    "caÅĤÄħĠ": 7162,
    "twarz": 7163,
    "dÅĤugoĠ": 7164,
    "Å¼oÅĤnierzy": 7165,
    "nieÅĽÄĩĠ": 7166,
    "Ġpatrz": 7167,
    "ĠprawieĠ": 7168,
    "ciaÅĤaĠ": 7169,
    "tygod": 7170,
    "cyĠiĠ": 7171,
    "Å¼elaz": 7172,
    "âĢĶĠAleĠ": 7173,
    "ÅĤoĠsiÄĻ": 7174,
    ".ĠKaÅ¼dyĠ": 7175,
    "bohater": 7176,
    ";ĠaleĠ": 7177,
    "ĠswojejĠ": 7178,
    "Ġprzej": 7179,
    ".ĠâĢŀ": 7180,
    "Å¼yciu": 7181,
    "oĠtoĠ": 7182,
    "ustaĠ": 7183,
    "Austri": 7184,
    "daÄĩ": 7185,
    "neĠdoĠ": 7186,
    "ĠmojeĠ": 7187,
    "ÅĤoĠtoĠ": 7188,
    "Ġspokoj": 7189,
    "ĠjegoĠ": 7190,
    "ĠwczeÅĽniej": 7191,
    "statku": 7192,
    "koÅĦcu": 7193,
    "ĠdopieroĠ": 7194,
    "ĠMar": 7195,
    "cznaĠ": 7196,
    "wybra": 7197,
    "ogrod": 7198,
    "profes": 7199,
    "72": 7200,
    "powierzch": 7201,
    "ÅĦstwaĠiĠ": 7202,
    "skaza": 7203,
    "ĠprzeglÄħd": 7204,
    "wzglÄĻd": 7205,
    "*,Ġ": 7206,
    "nych,": 7207,
    "poÅĤecz": 7208,
    "1ĠstyczniaĠ": 7209,
    "ustawy,Ġ": 7210,
    "przysÅĤug": 7211,
    "stosow": 7212,
    "usÅĤugiĠ": 7213,
    "ust.Ġ1,Ġ": 7214,
    "owanieĠw": 7215,
    "ĠsytuacjiĠ": 7216,
    "funkcjonowaniaĠ": 7217,
    "usÅĤugĠ": 7218,
    "studi": 7219,
    "prowadzenieĠ": 7220,
    "oral": 7221,
    "98": 7222,
    "300": 7223,
    "radaĠ": 7224,
    "dukacjiĠ": 7225,
    "Se": 7226,
    "konaw": 7227,
    "dziedz": 7228,
    "ckiego": 7229,
    "argument": 7230,
    "ĠMi": 7231,
    "ong": 7232,
    "liczneĠ": 7233,
    "FUE": 7234,
    "Ġpowsta": 7235,
    "Czech": 7236,
    "zĠA": 7237,
    "brytyj": 7238,
    "QL": 7239,
    "Kategoria:Nek": 7240,
    "Kategoria:Nekrol": 7241,
    "Kategoria:NekrologiĠ": 7242,
    "ÅģomÅ¼yĠ": 7243,
    "Man": 7244,
    "Ġwolnomular": 7245,
    "eksi": 7246,
    "eldowanie:Ġ": 7247,
    "ĠsobÄħ": 7248,
    ",Ġtak": 7249,
    "uczy": 7250,
    "bÅĤa": 7251,
    "czo": 7252,
    "klasy": 7253,
    "Ã³z": 7254,
    "ryj": 7255,
    "czoraj": 7256,
    "fanta": 7257,
    "ĠzadaÅĦ": 7258,
    "jedyn": 7259,
    "ĠsÅĤowa": 7260,
    ",ĠktÃ³rych": 7261,
    "kraw": 7262,
    "ĠKa": 7263,
    "odpowiedziaÅĤ": 7264,
    "Praw": 7265,
    "!ĠZ": 7266,
    "ĠwyglÄħd": 7267,
    "Ġpopraw": 7268,
    "dziwie": 7269,
    ".ĠChciaÅĤ": 7270,
    "Ġtygod": 7271,
    "aliÅĽmyĠ": 7272,
    "najbardziej": 7273,
    "Ri": 7274,
    "Ġpomoc": 7275,
    "aniuĠ": 7276,
    "Ġtej": 7277,
    "Ġdodat": 7278,
    "godzinĠ": 7279,
    "Austria": 7280,
    "am,Ġ": 7281,
    "liwe": 7282,
    "Åºni": 7283,
    "ezwaÅĤ": 7284,
    "cal": 7285,
    "cielaĠ": 7286,
    "arzu": 7287,
    "oĠnie": 7288,
    "?ĠZ": 7289,
    "20.": 7290,
    "ĠpodczasĠ": 7291,
    "liza": 7292,
    "Ġmiejsc": 7293,
    "nychĠw": 7294,
    "Ġprofes": 7295,
    "pÅĤywa": 7296,
    "Mu": 7297,
    "krot": 7298,
    ".ĠâĢĶ": 7299,
    "opatrze": 7300,
    "7)": 7301,
    "c)": 7302,
    "spoÅĤe": 7303,
    "bezpoÅĽrednioĠ": 7304,
    "nieÅĦ": 7305,
    "niu.": 7306,
    "Kultu": 7307,
    "otwarciaĠ": 7308,
    "wynika": 7309,
    "doskona": 7310,
    "kontak": 7311,
    "Organi": 7312,
    "tejĠsprawie": 7313,
    "analizyĠ": 7314,
    "resor": 7315,
    "pomocÄħ": 7316,
    "identy": 7317,
    "Ġdokument": 7318,
    "gaÅ¼": 7319,
    "skiej,Ġ": 7320,
    "toko": 7321,
    "artoÅĽÄĩĠ": 7322,
    "ĠznajdujeĠsiÄĻ": 7323,
    "CentrumĠ": 7324,
    "PR": 7325,
    "imion": 7326,
    "neg": 7327,
    "draÅ¼": 7328,
    "bÅĤÄħd": 7329,
    ")Ġ2018/1046Âł": 7330,
    "integralnÄħĠ": 7331,
    "EBT": 7332,
    "ĠwersjiĠ": 7333,
    ".ĠJednak": 7334,
    "atomiast": 7335,
    "JerzyĠ": 7336,
    "JegoĠ": 7337,
    "amerykaÅĦskiĠ": 7338,
    "dnieĠlotyĠzĠ": 7339,
    "Weiha": 7340,
    "nieĠdlaĠ": 7341,
    "chcÄĻĠ": 7342,
    "niceĠ": 7343,
    "ati": 7344,
    "ĠwrÃ³ci": 7345,
    "mamĠ": 7346,
    "Ġzdol": 7347,
    "awszeĠ": 7348,
    "zapyta": 7349,
    "nieĠtoĠ": 7350,
    "niego,Ġ": 7351,
    "raczejĠ": 7352,
    "aĠjest": 7353,
    "ĠdrugiejĠ": 7354,
    "gorz": 7355,
    "szÅĤyĠ": 7356,
    "stad": 7357,
    "jÄħĠiĠ": 7358,
    "tÄĻsk": 7359,
    "zaraz": 7360,
    "maÅĤoĠ": 7361,
    ".ĠBar": 7362,
    "szac": 7363,
    "posta": 7364,
    "cierpli": 7365,
    "yÅĽli": 7366,
    "kÃ³ÅĤ": 7367,
    "baÅĤ": 7368,
    "buch": 7369,
    "stÄħd": 7370,
    "stanÄĻ": 7371,
    "koleiĠ": 7372,
    "kiedyÅĽ": 7373,
    ".ĠZobacz": 7374,
    "!ĠS": 7375,
    ",ĠwiÄĻcĠ": 7376,
    "piĠ": 7377,
    "ĠpÄĻ": 7378,
    "gÃ³ryĠ": 7379,
    "owaÅĦ": 7380,
    "caÅĤkiemĠ": 7381,
    "wÅĤadz": 7382,
    "ata": 7383,
    "ÅĦstwie": 7384,
    "otel": 7385,
    "boj": 7386,
    "ĠmieÅĽcie": 7387,
    "znacze": 7388,
    "leksand": 7389,
    "ĠdoĠwy": 7390,
    "doktoraĠ": 7391,
    "naw": 7392,
    ".ĠzĠ": 7393,
    "ĠtytuÅĤuĠ": 7394,
    "ĠdotyczÄħcychĠ": 7395,
    "brzmieniu:": 7396,
    "stopieÅĦ": 7397,
    "dotychczas": 7398,
    "1988": 7399,
    "alko": 7400,
    "Ġpoziom": 7401,
    "Art.Âł3": 7402,
    "wrazĠzĠ": 7403,
    "radzie": 7404,
    "adzeniaĠ": 7405,
    "stwierdz": 7406,
    "skiej.": 7407,
    "uÅ¼ywaĠ": 7408,
    "sÄħĠw": 7409,
    "Ġwymag": 7410,
    "uzupeÅĤ": 7411,
    "puÅĤkow": 7412,
    "osoby:": 7413,
    "niczyĠ": 7414,
    "nazyw": 7415,
    "MichaÅĤĠ": 7416,
    "nieĠsiÄĻ": 7417,
    ".ĠAnt": 7418,
    ".ĠRÃ³w": 7419,
    "ZiemiÄĻ": 7420,
    "El": 7421,
    "aĠâĢĶ": 7422,
    "Ġmot": 7423,
    "CO": 7424,
    "SZ": 7425,
    "Bru": 7426,
    "ĠzĠdniaĠ30ĠwrzeÅĽniaĠ": 7427,
    "208Ġ": 7428,
    "dotyczyĠ": 7429,
    "dokÅĤad": 7430,
    "px": 7431,
    "Katowi": 7432,
    "Ha": 7433,
    ".ĠWedÅĤug": 7434,
    "ĠZobaczĠte": 7435,
    "ĠZobaczĠteÅ¼Ġ": 7436,
    "ĠNapisz": 7437,
    "âĢĵ19": 7438,
    "ZdzisÅĤaw": 7439,
    "c.Ġ1": 7440,
    "ĠPortĠlotniczyĠ": 7441,
    "WÅĤoszech,ĠwĠ": 7442,
    "KsiÄĻÅ¼ycu": 7443,
    "iÅ¼Ġ": 7444,
    "myÅĽliĠ": 7445,
    "pak": 7446,
    "roÅĽli": 7447,
    "zabra": 7448,
    "dziesiÄĻciuĠ": 7449,
    "rzut": 7450,
    "Å¼yÅĤĠ": 7451,
    "szÄĻdzie": 7452,
    "iÅĤĠ": 7453,
    "spy": 7454,
    "bardz": 7455,
    "JuÅ¼Ġ": 7456,
    "ĠsamoĠ": 7457,
    "ĠmamyĠ": 7458,
    "ÅĤybyĠ": 7459,
    "tejĠsam": 7460,
    "stuĠ": 7461,
    "kimiĠ": 7462,
    "ĠpieniÄħdze": 7463,
    "âĢĶĠB": 7464,
    "niech": 7465,
    "ÅĽniÄĻ": 7466,
    "try": 7467,
    "wyso": 7468,
    "powaÅ¼": 7469,
    "Karo": 7470,
    "dziÅĤĠ": 7471,
    "Ġtabli": 7472,
    "dwÃ³chĠ": 7473,
    "czemĠ": 7474,
    "negoĠw": 7475,
    "jakimĠ": 7476,
    "ÅĤog": 7477,
    "ĠwziÄĻ": 7478,
    "cierpi": 7479,
    "lazÅĤ": 7480,
    "mÃ³wiÄħc": 7481,
    "najbliÅ¼": 7482,
    "Ġminut": 7483,
    "opuÅĽci": 7484,
    "naprawd": 7485,
    ".ĠJestĠ": 7486,
    "ĠzaÅĤo": 7487,
    "ona,Ġ": 7488,
    "niÅĤĠ": 7489,
    "mach": 7490,
    "unik": 7491,
    "uderzy": 7492,
    "Äħcym": 7493,
    "ÅĤeĠ": 7494,
    "bezpieczeÅĦstwa": 7495,
    "uroczyst": 7496,
    "onyĠw": 7497,
    "odpowiedzi": 7498,
    "mom": 7499
  },
  "id_to_token": {
    "0": "Ā",
    "1": "ā",
    "2": "Ă",
    "3": "ă",
    "4": "Ą",
    "5": "ą",
    "6": "Ć",
    "7": "ć",
    "8": "Ĉ",
    "9": "ĉ",
    "10": "Ċ",
    "11": "ċ",
    "12": "Č",
    "13": "č",
    "14": "Ď",
    "15": "ď",
    "16": "Đ",
    "17": "đ",
    "18": "Ē",
    "19": "ē",
    "20": "Ĕ",
    "21": "ĕ",
    "22": "Ė",
    "23": "ė",
    "24": "Ę",
    "25": "ę",
    "26": "Ě",
    "27": "ě",
    "28": "Ĝ",
    "29": "ĝ",
    "30": "Ğ",
    "31": "ğ",
    "32": "Ġ",
    "33": "!",
    "34": "\"",
    "35": "#",
    "36": "$",
    "37": "%",
    "38": "&",
    "39": "'",
    "40": "(",
    "41": ")",
    "42": "*",
    "43": "+",
    "44": ",",
    "45": "-",
    "46": ".",
    "47": "/",
    "48": "0",
    "49": "1",
    "50": "2",
    "51": "3",
    "52": "4",
    "53": "5",
    "54": "6",
    "55": "7",
    "56": "8",
    "57": "9",
    "58": ":",
    "59": ";",
    "60": "<",
    "61": "=",
    "62": ">",
    "63": "?",
    "64": "@",
    "65": "A",
    "66": "B",
    "67": "C",
    "68": "D",
    "69": "E",
    "70": "F",
    "71": "G",
    "72": "H",
    "73": "I",
    "74": "J",
    "75": "K",
    "76": "L",
    "77": "M",
    "78": "N",
    "79": "O",
    "80": "P",
    "81": "Q",
    "82": "R",
    "83": "S",
    "84": "T",
    "85": "U",
    "86": "V",
    "87": "W",
    "88": "X",
    "89": "Y",
    "90": "Z",
    "91": "[",
    "92": "\\",
    "93": "]",
    "94": "^",
    "95": "_",
    "96": "`",
    "97": "a",
    "98": "b",
    "99": "c",
    "100": "d",
    "101": "e",
    "102": "f",
    "103": "g",
    "104": "h",
    "105": "i",
    "106": "j",
    "107": "k",
    "108": "l",
    "109": "m",
    "110": "n",
    "111": "o",
    "112": "p",
    "113": "q",
    "114": "r",
    "115": "s",
    "116": "t",
    "117": "u",
    "118": "v",
    "119": "w",
    "120": "x",
    "121": "y",
    "122": "z",
    "123": "{",
    "124": "|",
    "125": "}",
    "126": "~",
    "127": "ġ",
    "128": "Ģ",
    "129": "ģ",
    "130": "Ĥ",
    "131": "ĥ",
    "132": "Ħ",
    "133": "ħ",
    "134": "Ĩ",
    "135": "ĩ",
    "136": "Ī",
    "137": "ī",
    "138": "Ĭ",
    "139": "ĭ",
    "140": "Į",
    "141": "į",
    "142": "İ",
    "143": "ı",
    "144": "Ĳ",
    "145": "ĳ",
    "146": "Ĵ",
    "147": "ĵ",
    "148": "Ķ",
    "149": "ķ",
    "150": "ĸ",
    "151": "Ĺ",
    "152": "ĺ",
    "153": "Ļ",
    "154": "ļ",
    "155": "Ľ",
    "156": "ľ",
    "157": "Ŀ",
    "158": "ŀ",
    "159": "Ł",
    "160": "ł",
    "161": "¡",
    "162": "¢",
    "163": "£",
    "164": "¤",
    "165": "¥",
    "166": "¦",
    "167": "§",
    "168": "¨",
    "169": "©",
    "170": "ª",
    "171": "«",
    "172": "¬",
    "173": "Ń",
    "174": "®",
    "175": "¯",
    "176": "°",
    "177": "±",
    "178": "²",
    "179": "³",
    "180": "´",
    "181": "µ",
    "182": "¶",
    "183": "·",
    "184": "¸",
    "185": "¹",
    "186": "º",
    "187": "»",
    "188": "¼",
    "189": "½",
    "190": "¾",
    "191": "¿",
    "192": "À",
    "193": "Á",
    "194": "Â",
    "195": "Ã",
    "196": "Ä",
    "197": "Å",
    "198": "Æ",
    "199": "Ç",
    "200": "È",
    "201": "É",
    "202": "Ê",
    "203": "Ë",
    "204": "Ì",
    "205": "Í",
    "206": "Î",
    "207": "Ï",
    "208": "Ð",
    "209": "Ñ",
    "210": "Ò",
    "211": "Ó",
    "212": "Ô",
    "213": "Õ",
    "214": "Ö",
    "215": "×",
    "216": "Ø",
    "217": "Ù",
    "218": "Ú",
    "219": "Û",
    "220": "Ü",
    "221": "Ý",
    "222": "Þ",
    "223": "ß",
    "224": "à",
    "225": "á",
    "226": "â",
    "227": "ã",
    "228": "ä",
    "229": "å",
    "230": "æ",
    "231": "ç",
    "232": "è",
    "233": "é",
    "234": "ê",
    "235": "ë",
    "236": "ì",
    "237": "í",
    "238": "î",
    "239": "ï",
    "240": "ð",
    "241": "ñ",
    "242": "ò",
    "243": "ó",
    "244": "ô",
    "245": "õ",
    "246": "ö",
    "247": "÷",
    "248": "ø",
    "249": "ù",
    "250": "ú",
    "251": "û",
    "252": "ü",
    "253": "ý",
    "254": "þ",
    "255": "ÿ",
    "256": "<|endoftext|>",
    "257": "ie",
    "258": "aĠ",
    "259": "ÅĤ",
    "260": ",Ġ",
    "261": "oĠ",
    "262": "iĠ",
    "263": "ÄĻ",
    "264": "st",
    "265": "Äħ",
    "266": "yĠ",
    "267": "ze",
    "268": "ni",
    "269": "ow",
    "270": "ch",
    "271": "nie",
    "272": "Å¼",
    "273": "Ġp",
    "274": "Ã³",
    "275": "ra",
    "276": "Ġw",
    "277": "cz",
    "278": "ÅĽ",
    "279": "eĠ",
    "280": ".Ġ",
    "281": "od",
    "282": "na",
    "283": "sz",
    "284": "Ġz",
    "285": "ro",
    "286": "ar",
    "287": "iÄĻ",
    "288": "aÅĤ",
    "289": "or",
    "290": "te",
    "291": "mĠ",
    "292": "dz",
    "293": "rze",
    "294": "âĢ",
    "295": "an",
    "296": "Ġs",
    "297": "Äĩ",
    "298": "je",
    "299": "li",
    "300": "ak",
    "301": "Ġd",
    "302": "rz",
    "303": "ych",
    "304": "naĠ",
    "305": "sk",
    "306": "Ġm",
    "307": "goĠ",
    "308": "le",
    "309": "on",
    "310": "Ã³w",
    "311": "uĠ",
    "312": "ob",
    "313": "ci",
    "314": "re",
    "315": "po",
    "316": "jÄħ",
    "317": "ne",
    "318": "ia",
    "319": "oÅĽ",
    "320": "am",
    "321": "Ġt",
    "322": "aw",
    "323": "niaĠ",
    "324": "jĠ",
    "325": "kt",
    "326": "at",
    "327": "cj",
    "328": "om",
    "329": "nieĠ",
    "330": "ad",
    "331": "ym",
    "332": "cze",
    "333": "ÅĦ",
    "334": "==",
    "335": "siÄĻ",
    "336": "ka",
    "337": "Âł",
    "338": "in",
    "339": "âĢĶ",
    "340": "cie",
    "341": "ko",
    "342": "al",
    "343": "ĠS",
    "344": "ce",
    "345": "os",
    "346": "zĠ",
    "347": "dzie",
    "348": "wĠ",
    "349": "rzy",
    "350": "za",
    "351": "ot",
    "352": "ÄħĠ",
    "353": "ÄĩĠ",
    "354": "czy",
    "355": "20",
    "356": "ĠwĠ",
    "357": "er",
    "358": "owa",
    "359": "en",
    "360": "wi",
    "361": "Ġprze",
    "362": "Å¼e",
    "363": "Ġwy",
    "364": "wie",
    "365": "wy",
    "366": "by",
    "367": "mie",
    "368": "ol",
    "369": "ychĠ",
    "370": "wa",
    "371": "ktÃ³",
    "372": "jÄħc",
    "373": "dzi",
    "374": "Å¼eĠ",
    "375": "ciĠ",
    "376": "ry",
    "377": "sze",
    "378": "pra",
    "379": "mi",
    "380": "čĠ",
    "381": "as",
    "382": "jak",
    "383": "rÃ³",
    "384": "prze",
    "385": "ku",
    "386": "Ġpo",
    "387": "ru",
    "388": "ĠiĠ",
    "389": "ĠsiÄĻ",
    "390": "âĢĶĠ",
    "391": "kie",
    "392": "ymĠ",
    "393": "jest",
    "394": "roz",
    "395": "ĠdoĠ",
    "396": "og",
    "397": "Å¼y",
    "398": "ÅĤu",
    "399": "zy",
    "400": "owie",
    "401": "a,Ġ",
    "402": "lu",
    "403": "op",
    "404": "tu",
    "405": "skie",
    "406": "===",
    "407": "ki",
    "408": "ej",
    "409": "wo",
    "410": "chĠ",
    "411": "noÅĽ",
    "412": "kaĠ",
    "413": "ty",
    "414": "ate",
    "415": "odz",
    "416": "cy",
    "417": "emĠ",
    "418": ":Ġ",
    "419": "ost",
    "420": "ĠzĠ",
    "421": "ktÃ³r",
    "422": "ÅĤo",
    "423": "Äħd",
    "424": "Ġza",
    "425": "nyĠ",
    "426": "toĠ",
    "427": "em",
    "428": "ÅĤĠ",
    "429": "is",
    "430": "jeĠ",
    "431": "kiĠ",
    "432": "ÄĻĠ",
    "433": "go",
    "434": "neĠ",
    "435": "ÅĤa",
    "436": "doĠ",
    "437": "kĠ",
    "438": "liĠ",
    "439": "ÅĤaĠ",
    "440": "Ã³wĠ",
    "441": "byĠ",
    "442": "gor",
    "443": "nia",
    "444": "pie",
    "445": "cjiĠ",
    "446": "ut",
    "447": "un",
    "448": "ok",
    "449": "szy",
    "450": "cyĠ",
    "451": "ust",
    "452": "bi",
    "453": "owe",
    "454": "Kate",
    "455": "ora",
    "456": "goria",
    "457": "Kategoria",
    "458": "Kategoria:",
    "459": "dĠ",
    "460": "dyĠ",
    "461": "jed",
    "462": "ta",
    "463": "201",
    "464": ",ĠÅ¼eĠ",
    "465": "tak",
    "466": "fi",
    "467": "siÄĻĠ",
    "468": "âĢĵ",
    "469": "art",
    "470": "da",
    "471": "sp",
    "472": "ÄĻd",
    "473": "us",
    "474": "y,Ġ",
    "475": "la",
    "476": "owi",
    "477": "laĠ",
    "478": "Äħc",
    "479": "gÅĤ",
    "480": "stw",
    "481": "nych",
    "482": "ja",
    "483": "pod",
    "484": "ud",
    "485": ".ĠW",
    "486": ",ĠaĠ",
    "487": "ma",
    "488": "zna",
    "489": "aÅĤĠ",
    "490": "Å¼Ġ",
    "491": "ieĠ",
    "492": "ez",
    "493": "owan",
    "494": "rod",
    "495": "Åº",
    "496": "negoĠ",
    "497": "mo",
    "498": "ÅĤoĠ",
    "499": "caĠ",
    "500": "mu",
    "501": "AR",
    "502": "i,Ġ",
    "503": ")Ġ",
    "504": "rĠ",
    "505": "âĢŀ",
    "506": "Ġprzy",
    "507": "im",
    "508": "19",
    "509": "sty",
    "510": "OR",
    "511": "PAR",
    "512": "aÅĤaĠ",
    "513": "tĠ",
    "514": "wia",
    "515": "UR",
    "516": "Ġpod",
    "517": ".ĠP",
    "518": "dy",
    "519": "myĠ",
    "520": "ek",
    "521": "naj",
    "522": "Na",
    "523": "AT",
    "524": "szcze",
    "525": "no",
    "526": "âĢĿ",
    "527": "CE",
    "528": ",ĠktÃ³r",
    "529": "for",
    "530": "ĠSE",
    "531": "ORĠ",
    "532": "ĠSO",
    "533": "===ĠSO",
    "534": "===ĠSOUR",
    "535": "===ĠSOURCE",
    "536": "===ĠSOURCEĠSE",
    "537": "===ĠSOURCEĠSEPAR",
    "538": "===ĠSOURCEĠSEPARAT",
    "539": "ORĠ===",
    "540": "pe",
    "541": "ga",
    "542": "koĠ",
    "543": "ur",
    "544": "we",
    "545": "nÄħ",
    "546": "orz",
    "547": "przy",
    "548": "ĠK",
    "549": "sta",
    "550": "si",
    "551": "bli",
    "552": "ĠP",
    "553": "leĠ",
    "554": "Ġpra",
    "555": "bie",
    "556": "coĠ",
    "557": "ÄĻp",
    "558": "czas",
    "559": "ĠsiÄĻĠ",
    "560": "nychĠ",
    "561": "kow",
    "562": "Ġwie",
    "563": "dziaÅĤ",
    "564": "ÅĽci",
    "565": "nym",
    "566": "kuĠ",
    "567": "nej",
    "568": "ĠĠ",
    "569": "raz",
    "570": "jegoĠ",
    "571": "du",
    "572": "czyĠ",
    "573": "gra",
    "574": "rÃ³d",
    "575": "praw",
    "576": "amiĠ",
    "577": "noÅĽciĠ",
    "578": "jÄĻ",
    "579": "ju",
    "580": "jestĠ",
    "581": "ÅĤad",
    "582": "gi",
    "583": "niej",
    "584": "staw",
    "585": "zg",
    "586": "jÄħĠ",
    "587": "lub",
    "588": "niĠ",
    "589": "um",
    "590": "Ġmo",
    "591": "pi",
    "592": "kon",
    "593": "rzyĠ",
    "594": "oÅĽciĠ",
    "595": "czÄĻ",
    "596": "ran",
    "597": "Eu",
    "598": "pis",
    "599": "ceĠ",
    "600": ",Ġjak",
    "601": "ÅĤyĠ",
    "602": "Ġ(",
    "603": "odĠ",
    "604": "egoĠ",
    "605": "spo",
    "606": "00",
    "607": "Ġpro",
    "608": "ÅĦstw",
    "609": "ski",
    "610": "Nie",
    "611": ".Âł",
    "612": "stÄĻp",
    "613": "rw",
    "614": "sÅĤ",
    "615": "ĠtoĠ",
    "616": "powie",
    "617": "pa",
    "618": "obie",
    "619": "zaĠ",
    "620": "niu",
    "621": "ĠÅ",
    "622": "Ã³l",
    "623": "ĠW",
    "624": "sie",
    "625": "ent",
    "626": "nik",
    "627": "szyst",
    "628": "rop",
    "629": "rÄĻ",
    "630": "chod",
    "631": "tegoĠ",
    "632": "de",
    "633": "oÅĽci",
    "634": "nejĠ",
    "635": "cieĠ",
    "636": "Ã³ÅĤ",
    "637": "miĠ",
    "638": "ri",
    "639": "¹rÃ³d",
    "640": ",Ġw",
    "641": "szyĠ",
    "642": "owyĠ",
    "643": "stro",
    "644": "Ch",
    "645": "pro",
    "646": "oj",
    "647": "!Ġ",
    "648": "Je",
    "649": "Ġtak",
    "650": "iast",
    "651": "aÅĤyĠ",
    "652": "rÃ³w",
    "653": "cĠ",
    "654": "zd",
    "655": "Pol",
    "656": "waĠ",
    "657": "ca",
    "658": "cjaĠ",
    "659": "orzÄħd",
    "660": "ona",
    "661": "sy",
    "662": "bud",
    "663": "stan",
    "664": "unk",
    "665": "rzym",
    "666": "UE",
    "667": "ĠzaĠ",
    "668": "bra",
    "669": "cyj",
    "670": "ĠÅ¹rÃ³d",
    "671": "kom",
    "672": "ska",
    "673": "do",
    "674": "jaĠ",
    "675": "10",
    "676": "oba",
    "677": "nrĠ",
    "678": "ÅĤug",
    "679": ".čĠ",
    "680": "et",
    "681": "nieĠm",
    "682": "iaĠ",
    "683": "ÅĤy",
    "684": "ÂłÂł",
    "685": "nymĠ",
    "686": "zu",
    "687": "ÅĽl",
    "688": "niuĠ",
    "689": "ten",
    "690": "nieĠz",
    "691": "zgl",
    "692": "usz",
    "693": "Dz",
    "694": "jÄħcĠ",
    "695": "nist",
    "696": "go,Ġ",
    "697": "wiÄĻ",
    "698": "nicz",
    "699": "bez",
    "700": "zglÄĻd",
    "701": "ĠZ",
    "702": "ciÄħ",
    "703": "aÅĤoĠ",
    "704": "zeniaĠ",
    "705": "ul",
    "706": "ropej",
    "707": "orazĠ",
    "708": ",ĠwĠ",
    "709": "pr",
    "710": "âĢĵĠ",
    "711": "Ġwi",
    "712": "up",
    "713": "temĠ",
    "714": "oko",
    "715": "nika",
    "716": "licz",
    "717": "owaĠ",
    "718": ".ĠT",
    "719": "ist",
    "720": ".ĠZ",
    "721": "odzi",
    "722": "Ġmie",
    "723": "uw",
    "724": ",ĠÅ¼e",
    "725": "ter",
    "726": "nÄĻ",
    "727": "Ġty",
    "728": "ara",
    "729": "bar",
    "730": "rozp",
    "731": "1.",
    "732": "rysty",
    "733": "js",
    "734": "Kom",
    "735": "ycz",
    "736": ",Ġz",
    "737": "oraz",
    "738": "arz",
    "739": "leg",
    "740": "Mi",
    "741": "Ã³r",
    "742": "res",
    "743": "owych",
    "744": "Ġg",
    "745": "bÄĻ",
    "746": "ach",
    "747": ",Ġpo",
    "748": "Ġspra",
    "749": "pow",
    "750": "wiÄħ",
    "751": "ktÃ³re",
    "752": "taĠ",
    "753": "one",
    "754": "kra",
    "755": "Ġpow",
    "756": "In",
    "757": "ÅĽwia",
    "758": "jiĠ",
    "759": "ĠB",
    "760": "nt",
    "761": "ĠpoĠ",
    "762": "Europej",
    "763": "skiĠ",
    "764": "nÄħĠ",
    "765": ".ĠS",
    "766": "Å¼yĠ",
    "767": ",Ġg",
    "768": "ĠÅ¹rÃ³dÅĤo",
    "769": "ĠA",
    "770": "lkoĠ",
    "771": "aleĠ",
    "772": "rat",
    "773": "2.",
    "774": "Ġmi",
    "775": "lat",
    "776": "boĠ",
    "777": ".Ġ1",
    "778": "..",
    "779": "liw",
    "780": "dni",
    "781": ".ĠN",
    "782": "âĢ¦",
    "783": "Ġpa",
    "784": "tem",
    "785": "szeĠ",
    "786": "onyĠ",
    "787": "lot",
    "788": ".ĠO",
    "789": "owegoĠ",
    "790": ",Ġs",
    "791": "rog",
    "792": "ujeĠ",
    "793": "(UE",
    "794": "skiej",
    "795": "niÄĻ",
    "796": "26",
    "797": "Ġr",
    "798": "Ar",
    "799": "owaniaĠ",
    "800": ";Ġ",
    "801": "ÅĽmie",
    "802": "ÅĤe",
    "803": "ciaĠ",
    "804": "Naj",
    "805": "awi",
    "806": "pad",
    "807": "Ã³w,Ġ",
    "808": "zost",
    "809": "uwzglÄĻd",
    "810": "ĠnaĠ",
    "811": "ĠG",
    "812": "ale",
    "813": "oc",
    "814": "dlaĠ",
    "815": "piecze",
    "816": "ĠprzezĠ",
    "817": "skiegoĠ",
    "818": "cza",
    "819": "caÅĤ",
    "820": "Äĩ,Ġ",
    "821": "aÅ¼",
    "822": "oÅĤ",
    "823": "kole",
    "824": "ich",
    "825": "oli",
    "826": "wÃ³",
    "827": "Ġnie",
    "828": "rozporzÄħd",
    "829": "el",
    "830": "Ġpie",
    "831": "ÅĤemĠ",
    "832": "nic",
    "833": ".ĠA",
    "834": "ag",
    "835": "Ġte",
    "836": "ali",
    "837": "Ġk",
    "838": "ole",
    "839": "nia,Ġ",
    "840": "jej",
    "841": ")ĠnrĠ",
    "842": "nom",
    "843": "forma",
    "844": "odpowie",
    "845": "raĠ",
    "846": "ÅĽmyĠ",
    "847": "18",
    "848": "ymiĠ",
    "849": "noÅĽci",
    "850": "noĠ",
    "851": "/201",
    "852": "bÄĻdzie",
    "853": "adyĠ",
    "854": ".ĠM",
    "855": "Ġprzed",
    "856": "niiĠ",
    "857": "uch",
    "858": "cow",
    "859": "ustaw",
    "860": "uwzglÄĻdnia",
    "861": "pre",
    "862": "ny",
    "863": "ĠÅ¹rÃ³dÅĤo:Ġ",
    "864": "tw",
    "865": "my",
    "866": "kar",
    "867": "tyĠ",
    "868": "u,Ġ",
    "869": "Ġna",
    "870": "kÄĻ",
    "871": "jaz",
    "872": "Ġro",
    "873": "funk",
    "874": "zyĠ",
    "875": "13",
    "876": "poĠ",
    "877": "tuĠ",
    "878": "Ġwszyst",
    "879": "anyĠ",
    "880": "il",
    "881": "owej",
    "882": ",ĠcoĠ",
    "883": "baĠ",
    "884": "rÃ³Å¼",
    "885": "cjeĠ",
    "886": "budÅ¼e",
    "887": "amĠ",
    "888": "ktor",
    "889": "aniaĠ",
    "890": "ĠSam",
    "891": "osob",
    "892": "czneĠ",
    "893": "owejĠ",
    "894": "oÅĽÄĩ",
    "895": "ĠT",
    "896": ",ĠktÃ³ryĠ",
    "897": "ĠdniaĠ",
    "898": "okre",
    "899": "jÄħce",
    "900": "Ġu",
    "901": "ÅĽcie",
    "902": "to",
    "903": "jejĠ",
    "904": "kor",
    "905": "row",
    "906": "kiemĠ",
    "907": "onaĠ",
    "908": "Ã³b",
    "909": "ÅĤuÅ¼",
    "910": "odzin",
    "911": "zw",
    "912": "ÅĤÄħ",
    "913": "peÅĤ",
    "914": "bliÅ¼",
    "915": "skaĠ",
    "916": "mat",
    "917": "szczeg",
    "918": "trz",
    "919": "Ġdo",
    "920": "Ã³wi",
    "921": "ĠD",
    "922": "ciÄĻ",
    "923": "bu",
    "924": "czÄħ",
    "925": "ĠN",
    "926": "chodz",
    "927": ".ĠD",
    "928": "art.Ġ",
    "929": "iÄĻdz",
    "930": "nieĠw",
    "931": "oweĠ",
    "932": "2018",
    "933": "kÅĤad",
    "934": "oneĠ",
    "935": "bo",
    "936": "jÄħceĠ",
    "937": "niemĠ",
    "938": "Ġspo",
    "939": "Wy",
    "940": "ĠdlaĠ",
    "941": "umie",
    "942": "niem",
    "943": "iĠz",
    "944": "jeszcze",
    "945": "arak",
    "946": "oÅĽÄĩĠ",
    "947": "stos",
    "948": "nau",
    "949": "Jak",
    "950": "nie,Ġ",
    "951": "gÅĤos",
    "952": "iĠw",
    "953": "lan",
    "954": "czÅĤ",
    "955": "Ġsprawie",
    "956": "ichĠ",
    "957": "kona",
    "958": "17",
    "959": "god",
    "960": "unika",
    "961": "Komis",
    "962": "Ġzak",
    "963": "ĠwiÄĻ",
    "964": "dom",
    "965": "lo",
    "966": "muĠ",
    "967": "byÅĤoĠ",
    "968": "nad",
    "969": "ÅĦĠ",
    "970": "prowa",
    "971": "Äħce",
    "972": "jazdĠ",
    "973": "tro",
    "974": "stra",
    "975": "ÅĽĠ",
    "976": "ba",
    "977": "ami",
    "978": "ew",
    "979": "Ġde",
    "980": "niejĠ",
    "981": "kÃ³w",
    "982": "byÅĤ",
    "983": "ĠM",
    "984": "200",
    "985": "yw",
    "986": "St",
    "987": "pu",
    "988": "arakte",
    "989": "ĠO",
    "990": ".ĠB",
    "991": "Ġma",
    "992": "Art",
    "993": "cha",
    "994": "kaÅ¼",
    "995": "ciÄħg",
    "996": "Ġpowie",
    "997": "owychĠ",
    "998": "Äħ,Ġ",
    "999": "obaczy",
    "1000": "II",
    "1001": ".ĠC",
    "1002": "szczegÃ³l",
    "1003": ".ĠJe",
    "1004": "aliĠ",
    "1005": "iÂł",
    "1006": "anaĠ",
    "1007": "Art.Âł",
    "1008": "ns",
    "1009": "ochod",
    "1010": "rzek",
    "1011": "dÅĤ",
    "1012": "ny,Ġ",
    "1013": "trze",
    "1014": "cu",
    "1015": "onych",
    "1016": "m,Ġ",
    "1017": "rud",
    "1018": "opie",
    "1019": "min",
    "1020": "Ġswo",
    "1021": "aniĠ",
    "1022": "bor",
    "1023": "dob",
    "1024": "ÅĦstwoĠ",
    "1025": "ĠR",
    "1026": "ezpiecze",
    "1027": "py",
    "1028": "przed",
    "1029": "Å¼naĠ",
    "1030": "stronom",
    "1031": "zenieĠ",
    "1032": "owiÄħ",
    "1033": ".ĠL",
    "1034": "16",
    "1035": "est",
    "1036": "siÄħ",
    "1037": "ksz",
    "1038": "owiĠ",
    "1039": "RadyĠ",
    "1040": "tejĠ",
    "1041": "ĠC",
    "1042": "jakoĠ",
    "1043": "eÅĤ",
    "1044": "czu",
    "1045": "owym",
    "1046": "sam",
    "1047": "ed",
    "1048": "utor",
    "1049": "wiÄħz",
    "1050": "ral",
    "1051": "lubĠ",
    "1052": "ÅĽwie",
    "1053": "Ġzaw",
    "1054": "be",
    "1055": "lotni",
    "1056": "rÃ³wnie",
    "1057": "jÄħcych",
    "1058": "ada",
    "1059": "ĠtymĠ",
    "1060": "NajbliÅ¼",
    "1061": "czÄĻÅĽ",
    "1062": "aneĠ",
    "1063": "star",
    "1064": "waÅ¼",
    "1065": "Nau",
    "1066": "âĢī",
    "1067": "olo",
    "1068": "tor",
    "1069": "Ġr.",
    "1070": "nieĠp",
    "1071": "nale",
    "1072": "dot",
    "1073": "zeĠ",
    "1074": "Åļ",
    "1075": "odzie",
    "1076": "ÅĦst",
    "1077": "ryĠ",
    "1078": "noÅĽÄĩ",
    "1079": "jedna",
    "1080": "es",
    "1081": "miejs",
    "1082": "ÅĽliĠ",
    "1083": "juÅ¼",
    "1084": "uÅ¼y",
    "1085": "of",
    "1086": "funkcj",
    "1087": "nans",
    "1088": "chwi",
    "1089": "aĠw",
    "1090": ".ĠK",
    "1091": "ÅĽmier",
    "1092": "bÄĻd",
    "1093": "zi",
    "1094": "akup",
    "1095": "lam",
    "1096": "toĠz",
    "1097": "nas",
    "1098": "swo",
    "1099": "szcz",
    "1100": "astronom",
    "1101": "aÄĩ",
    "1102": "dzoĠ",
    "1103": "abyĠ",
    "1104": "list",
    "1105": "Ġsam",
    "1106": "czne",
    "1107": "okoli",
    "1108": "koÅĦ",
    "1109": ").",
    "1110": "imĠ",
    "1111": "Prze",
    "1112": "ÅĽrod",
    "1113": "gen",
    "1114": "(UE)ĠnrĠ",
    "1115": "juÅ¼Ġ",
    "1116": "12",
    "1117": "Ġpom",
    "1118": "le,Ġ",
    "1119": "y.",
    "1120": "chÅĤ",
    "1121": "ser",
    "1122": "ane",
    "1123": "scyĠ",
    "1124": "ch,Ġ",
    "1125": "ontak",
    "1126": "2020",
    "1127": "ĠĠĠĠ",
    "1128": "3.",
    "1129": "gani",
    "1130": "maĠ",
    "1131": "obowiÄħ",
    "1132": "),Ġ",
    "1133": "Ã³j",
    "1134": "Ġsy",
    "1135": ",ĠktÃ³reĠ",
    "1136": "jakĠ",
    "1137": "uwzglÄĻdniajÄħcĠ",
    "1138": "arzy",
    "1139": "ery",
    "1140": "kil",
    "1141": "30",
    "1142": "UniiĠ",
    "1143": "przezĠ",
    "1144": "waÅĤ",
    "1145": "oz",
    "1146": "and",
    "1147": "Ġmiast",
    "1148": "Ġwiel",
    "1149": "gdyĠ",
    "1150": "Ġsie",
    "1151": "rad",
    "1152": "ab",
    "1153": "finans",
    "1154": "now",
    "1155": "arakterysty",
    "1156": "anoĠ",
    "1157": "zas",
    "1158": "rug",
    "1159": "kiem",
    "1160": "28",
    "1161": "2026",
    "1162": "WĠ",
    "1163": "25",
    "1164": "Minist",
    "1165": "skiejĠ",
    "1166": "kolej",
    "1167": "formacjeĠ",
    "1168": "owanie",
    "1169": "15",
    "1170": "ospod",
    "1171": "nikaĠ",
    "1172": "robi",
    "1173": "tym",
    "1174": "cyz",
    "1175": "Ġmar",
    "1176": "liÅĽmyĠ",
    "1177": "bardzoĠ",
    "1178": "ÅĤas",
    "1179": "wod",
    "1180": ".ĠWĠ",
    "1181": "Charakterysty",
    "1182": "owaÅĤ",
    "1183": "cho",
    "1184": "korzy",
    "1185": "zaw",
    "1186": "ki,Ġ",
    "1187": "nadĠ",
    "1188": "krÃ³",
    "1189": "stanowi",
    "1190": "ocleg",
    "1191": "iÄĻdzyĠ",
    "1192": "14",
    "1193": "byÅĤaĠ",
    "1194": "por",
    "1195": "taÅĤ",
    "1196": "ene",
    "1197": "org",
    "1198": "kry",
    "1199": "razĠ",
    "1200": "aĠiĠ",
    "1201": "strze",
    "1202": "daw",
    "1203": "Mar",
    "1204": "ospodar",
    "1205": "ywa",
    "1206": "war",
    "1207": "rokĠ",
    "1208": "Âłr",
    "1209": "teĠ",
    "1210": "iel",
    "1211": "nawe",
    "1212": "obe",
    "1213": "nos",
    "1214": "owaÄĩ",
    "1215": "ciel",
    "1216": "obacz",
    "1217": "stawi",
    "1218": "ruch",
    "1219": "InformacjeĠ",
    "1220": "minist",
    "1221": "o,Ġ",
    "1222": "ÄĻ,Ġ",
    "1223": "tra",
    "1224": "turysty",
    "1225": "toĠzobaczy",
    "1226": "stru",
    "1227": "jÄħcyĠ",
    "1228": "ĠtylkoĠ",
    "1229": "ÅĤat",
    "1230": ".U",
    "1231": "artoĠzobaczy",
    "1232": "tylkoĠ",
    "1233": "Dz.U",
    "1234": "cji",
    "1235": "regi",
    "1236": "den",
    "1237": "ochodemĠ",
    "1238": "1Ġ",
    "1239": "oĠw",
    "1240": "cja",
    "1241": "dziĠ",
    "1242": "Å»",
    "1243": "sÅĤaw",
    "1244": "ele",
    "1245": "Ġpraw",
    "1246": "ekĠ",
    "1247": "och",
    "1248": "ogra",
    "1249": "rob",
    "1250": "daĠ",
    "1251": "wier",
    "1252": "3,Ġ",
    "1253": "byÄĩ",
    "1254": "ers",
    "1255": "NajbliÅ¼szeĠ",
    "1256": "tej",
    "1257": "ÅĤoÅ¼",
    "1258": "rzÄĻd",
    "1259": "takÅ¼eĠ",
    "1260": "nĠ",
    "1261": "Ġzas",
    "1262": "zak",
    "1263": "pew",
    "1264": "tar",
    "1265": "nastÄĻp",
    "1266": "Ġpol",
    "1267": "Ġpos",
    "1268": "drog",
    "1269": "Ġroku",
    "1270": "ĠF",
    "1271": "ÄħceĠ",
    "1272": "ÄħĠw",
    "1273": "Kategoria:Pol",
    "1274": "byÅĤĠ",
    "1275": "Ġprzez",
    "1276": "kÃ³wĠ",
    "1277": "esti",
    "1278": "mnie",
    "1279": "szka",
    "1280": ".ĠU",
    "1281": "dzieĠ",
    "1282": "Ġzna",
    "1283": "NajbliÅ¼szeĠokoli",
    "1284": "cÃ³w",
    "1285": "kaz",
    "1286": "?Ġ",
    "1287": "tel",
    "1288": "organi",
    "1289": "siÄĻÅ¼y",
    "1290": "budÅ¼et",
    "1291": "Ġzost",
    "1292": "UniiĠEuropej",
    "1293": "czÅĤowie",
    "1294": "noÅĽÄĩĠ",
    "1295": "szegoĠ",
    "1296": "prowadz",
    "1297": ".ĠNie",
    "1298": "iiĠ",
    "1299": "spor",
    "1300": "maÅĤ",
    "1301": "ĠwĠsprawie",
    "1302": "InformacjeĠturysty",
    "1303": "tymĠ",
    "1304": "niegoĠ",
    "1305": "kre",
    "1306": "czyn",
    "1307": "anych",
    "1308": "inte",
    "1309": "ÅĽÄĩ",
    "1310": ".ĠI",
    "1311": "okreÅĽl",
    "1312": "kiedyĠ",
    "1313": "nieĠd",
    "1314": "ckie",
    "1315": "ÅĤecz",
    "1316": "ÅĤos",
    "1317": "pat",
    "1318": "ciaÅĤ",
    "1319": "niejsz",
    "1320": "nikĠ",
    "1321": "kol",
    "1322": "ĠprzyĠ",
    "1323": "AĠ",
    "1324": "ani",
    "1325": "noc",
    "1326": "nieĠwy",
    "1327": "nieniaĠ",
    "1328": "Ġpot",
    "1329": "nieĠs",
    "1330": "jestĠw",
    "1331": "gru",
    "1332": "Pra",
    "1333": "na,Ġ",
    "1334": "ktÃ³rych",
    "1335": "kl",
    "1336": "owaneĠ",
    "1337": "man",
    "1338": "achĠ",
    "1339": "naĠw",
    "1340": "jazd",
    "1341": "uje",
    "1342": "istor",
    "1343": "stÄħ",
    "1344": "Wi",
    "1345": "obus",
    "1346": "szĠ",
    "1347": "amyĠ",
    "1348": "nymiĠ",
    "1349": "oĠwĠ",
    "1350": "ĠzĠdniaĠ",
    "1351": "Ġwszystki",
    "1352": "arze",
    "1353": "utobus",
    "1354": "ca,Ġ",
    "1355": "imie",
    "1356": "Ġpor",
    "1357": "iem",
    "1358": "ana",
    "1359": "ĠKom",
    "1360": "kÄħ",
    "1361": "iada",
    "1362": "wieĠ",
    "1363": "uĠiĠ",
    "1364": ",ĠktÃ³raĠ",
    "1365": ",ĠaleĠ",
    "1366": "Ġpan",
    "1367": "impre",
    "1368": "Ġmiejs",
    "1369": "gu",
    "1370": "ratu",
    "1371": "mog",
    "1372": "ĠwÄĻ",
    "1373": "spÃ³ÅĤ",
    "1374": "obaczĠte",
    "1375": "ĠmiĠ",
    "1376": "tow",
    "1377": "lÄħd",
    "1378": "UniiĠEuropejskiej",
    "1379": "czeniaĠ",
    "1380": "wiel",
    "1381": "su",
    "1382": "ranspor",
    "1383": "ĠDo",
    "1384": "byÄĩĠ",
    "1385": "cji,Ġ",
    "1386": "Ġpierw",
    "1387": "mar",
    "1388": "sob",
    "1389": "Par",
    "1390": "ratom",
    "1391": "miast",
    "1392": "rzecz",
    "1393": "racaĠ",
    "1394": "akupyĠ",
    "1395": "Euratom",
    "1396": "skich",
    "1397": "ial",
    "1398": "ÅĤĠsiÄĻ",
    "1399": "leÅ¼",
    "1400": "ksiÄħ",
    "1401": "jeĠsiÄĻ",
    "1402": "narod",
    "1403": "nost",
    "1404": "szk",
    "1405": "amie",
    "1406": "sÄħ",
    "1407": "rzÄħd",
    "1408": "pl",
    "1409": "estiwa",
    "1410": "znacz",
    "1411": "a.",
    "1412": "ĠDojazdĠ",
    "1413": "ĠZakupyĠ",
    "1414": "nu",
    "1415": "aj",
    "1416": "Åģ",
    "1417": "ezpieczeÅĦstwoĠ",
    "1418": "olotemĠ",
    "1419": "ĠSamochodemĠ",
    "1420": "estiwale,Ġ",
    "1421": "estiwale,Ġimpre",
    "1422": "szejĠ",
    "1423": "sko",
    "1424": "naĠpo",
    "1425": "orze",
    "1426": "ĠSamolotemĠ",
    "1427": "Pa",
    "1428": "rzu",
    "1429": "formu",
    "1430": "ĠBezpieczeÅĦstwoĠ",
    "1431": "yÅĽl",
    "1432": "ĠwĠd",
    "1433": "go.",
    "1434": "krzy",
    "1435": "ÅĦstwaĠ",
    "1436": "nia.",
    "1437": "KomisjiĠ",
    "1438": "ĠKontak",
    "1439": "ĠKontaktĠ",
    "1440": "lek",
    "1441": "niÅ¼",
    "1442": "NaĠ",
    "1443": "obec",
    "1444": "rokĠbudÅ¼et",
    "1445": "rokĠbudÅ¼etowyĠ",
    "1446": "Ġser",
    "1447": "organ",
    "1448": "ministra",
    "1449": "tych",
    "1450": "czegoĠ",
    "1451": "rozumie",
    "1452": "szu",
    "1453": "EuropejskiegoĠ",
    "1454": ".ĠR",
    "1455": "sÃ³b",
    "1456": "ĠmarcaĠ",
    "1457": "ejĠ",
    "1458": "chÅĤop",
    "1459": "rÃ³ci",
    "1460": "nimĠ",
    "1461": "Ã³wĠiĠ",
    "1462": "24",
    "1463": "Ġpi",
    "1464": "onoĠ",
    "1465": "sÅĤu",
    "1466": ",Ġpoz",
    "1467": "przez",
    "1468": "Po",
    "1469": "rokĠbudÅ¼etowyĠ2018",
    "1470": "ĠGastronom",
    "1471": "ĠGastronomiaĠ",
    "1472": "ment",
    "1473": "stem",
    "1474": "Sam",
    "1475": "wag",
    "1476": "lep",
    "1477": "Sz",
    "1478": "ÅĽre",
    "1479": "iÄĻk",
    "1480": "Å¼eliĠ",
    "1481": "ĠWy",
    "1482": "owanieĠ",
    "1483": "ubli",
    "1484": "pol",
    "1485": "96",
    "1486": "nicyĠ",
    "1487": "ogÃ³l",
    "1488": "ÄĻÅ¼",
    "1489": "czeÅĽ",
    "1490": ",ĠiĠ",
    "1491": "198",
    "1492": "miaÅĤ",
    "1493": "dÅº",
    "1494": "cel",
    "1495": "dziaÅĤa",
    "1496": "staÅĤ",
    "1497": "IĠ",
    "1498": "moÅ¼eĠ",
    "1499": "pÅĤy",
    "1500": "ktÃ³ry",
    "1501": "Le",
    "1502": "rozporzÄħdzenieĠ",
    "1503": "ĠNocleg",
    "1504": "szaĠ",
    "1505": "ktĠ",
    "1506": "chodziĠ",
    "1507": "fe",
    "1508": "nÄĻtrz",
    "1509": "stycz",
    "1510": "szczegÃ³lnoÅĽciĠ",
    "1511": "/2013,Ġ",
    "1512": "obaczĠteÅ¼",
    "1513": "obra",
    "1514": "bro",
    "1515": "kro",
    "1516": "cjÄĻ",
    "1517": "owaĠwĠ",
    "1518": "CharakterystykaĠ",
    "1519": "ÅĤoÅĦ",
    "1520": "Pro",
    "1521": "sku",
    "1522": "mÃ³wi",
    "1523": "tenĠ",
    "1524": "jÄĻĠ",
    "1525": "ĠCharakterystykaĠ",
    "1526": "usi",
    "1527": "jem",
    "1528": "osÃ³b",
    "1529": "nauczy",
    "1530": "ĠmoÅ¼eĠ",
    "1531": "unikacjaĠ",
    "1532": "wszyst",
    "1533": "nag",
    "1534": "tycz",
    "1535": "lament",
    "1536": "ÅĤaÅĽci",
    "1537": "22",
    "1538": "Ġmu",
    "1539": "ucze",
    "1540": "Ġprzepis",
    "1541": "yĠiĠ",
    "1542": "Ġtym",
    "1543": "przyĠ",
    "1544": "zda",
    "1545": "fil",
    "1546": "âĢĵĠmiast",
    "1547": "alboĠ",
    "1548": "Å¼liw",
    "1549": ",ĠEuratom",
    "1550": "ami,Ġ",
    "1551": "sÄħĠ",
    "1552": "Ġsob",
    "1553": "ber",
    "1554": "Ġwym",
    "1555": "ciw",
    "1556": "ing",
    "1557": ",ĠoĠ",
    "1558": "Ġwz",
    "1559": "Ġtw",
    "1560": "iz",
    "1561": "bior",
    "1562": "jednost",
    "1563": "ojcie",
    "1564": ":čĠ",
    "1565": "ĠzÅĤ",
    "1566": "dr",
    "1567": "ÅĽwiad",
    "1568": "âĢĿĠ",
    "1569": "onegoĠ",
    "1570": "ÅĽwiat",
    "1571": "podstaw",
    "1572": "/2013,Ġ(UE)ĠnrĠ",
    "1573": "2019",
    "1574": "pan",
    "1575": "ren",
    "1576": "ĠSt",
    "1577": "onĠ",
    "1578": "iĠpo",
    "1579": "ÅĦskie",
    "1580": "ĠsÅĤ",
    "1581": "so",
    "1582": "Ã³g",
    "1583": "got",
    "1584": "!čĠ",
    "1585": "dziaÅĤĠ",
    "1586": "kaÅ¼d",
    "1587": "gospodar",
    "1588": "Ġdob",
    "1589": "gro",
    "1590": "baw",
    "1591": "ofi",
    "1592": "ĠWartoĠzobaczy",
    "1593": "ĠWartoĠzobaczyÄĩĠ",
    "1594": "ĠmaĠ",
    "1595": "administra",
    "1596": "...",
    "1597": "takĠ",
    "1598": "Ã³Å¼",
    "1599": "ac",
    "1600": "eg",
    "1601": "Dz.U.ĠL",
    "1602": "ski,Ġ",
    "1603": "omĠ",
    "1604": ",ĠgdyĠ",
    "1605": "wyÅ¼",
    "1606": "ÅĤem",
    "1607": "rowa",
    "1608": "dow",
    "1609": "arsz",
    "1610": "199",
    "1611": "tek",
    "1612": "jedno",
    "1613": "Dz.U.ĠLĠ",
    "1614": "ĠKomunikacjaĠ",
    "1615": "Å¼ad",
    "1616": "dost",
    "1617": "29",
    "1618": ".ĠG",
    "1619": "woj",
    "1620": "cjal",
    "1621": "Ġr.ĠwĠsprawie",
    "1622": "nios",
    "1623": "onal",
    "1624": "ÅĽle",
    "1625": ",ĠtoĠ",
    "1626": "ktÃ³rymĠ",
    "1627": "ang",
    "1628": "Äħcz",
    "1629": "ĠwÄĻz",
    "1630": "ÅĽÄĩĠ",
    "1631": "jakie",
    "1632": ",ĠÅ¼ebyĠ",
    "1633": "moc",
    "1634": "Ġdot",
    "1635": "pli",
    "1636": "biaÅĤ",
    "1637": "dotycz",
    "1638": "ktÃ³reĠ",
    "1639": "aÄĩĠ",
    "1640": "ĠpracyĠ",
    "1641": "se",
    "1642": "olog",
    "1643": "ĠNoclegiĠ",
    "1644": "znaj",
    "1645": "dat",
    "1646": ",ĠnaĠ",
    "1647": "ÄħĠiĠ",
    "1648": "zmie",
    "1649": "imiÄĻ",
    "1650": "icz",
    "1651": "onari",
    "1652": "rozporzÄħdzeniaĠ",
    "1653": "siÄĻĠz",
    "1654": "ÅĽli",
    "1655": ",Ġwy",
    "1656": "Ã³d",
    "1657": "ĠzwiÄħz",
    "1658": ",Ġnie",
    "1659": ".Ġ19",
    "1660": "spÃ³l",
    "1661": "kaw",
    "1662": "Ã³w.",
    "1663": "NaukaĠ",
    "1664": "rzÄĻ",
    "1665": "Ġlu",
    "1666": "ĠPracaĠ",
    "1667": "bardzie",
    "1668": "coÅĽ",
    "1669": "amiÄĻ",
    "1670": "Å¼yci",
    "1671": "wal",
    "1672": "Ġust",
    "1673": "najdu",
    "1674": ",ĠjakĠ",
    "1675": "uli",
    "1676": "szczy",
    "1677": "ary",
    "1678": "th",
    "1679": "owaÄĩĠ",
    "1680": "4.",
    "1681": "zacjiĠ",
    "1682": "m.",
    "1683": "KsiÄĻÅ¼y",
    "1684": "skim",
    "1685": "ste",
    "1686": "czymĠ",
    "1687": "ĠNaukaĠ",
    "1688": "Ka",
    "1689": "ĠsÅĤuÅ¼",
    "1690": "ĠâĢĵĠ",
    "1691": "rol",
    "1692": "owymĠ",
    "1693": "stwaĠ",
    "1694": "usÅĤug",
    "1695": "ustawyĠ",
    "1696": "era",
    "1697": "ĠwÄĻzÅĤemĠ",
    "1698": "mnieĠ",
    "1699": "ÅĤod",
    "1700": "7.",
    "1701": "Fran",
    "1702": "000",
    "1703": ",Ġza",
    "1704": "ĠE",
    "1705": "tedyĠ",
    "1706": "ÄħcegoĠ",
    "1707": "jÄĻzy",
    "1708": "ÄĩĠsiÄĻ",
    "1709": "ktÃ³regoĠ",
    "1710": "rÃ³wnieÅ¼",
    "1711": "1)",
    "1712": "Ġdecyz",
    "1713": "ĠpeÅĤ",
    "1714": "ÅĤaw",
    "1715": "iemi",
    "1716": "nekĠ",
    "1717": "art.Âł",
    "1718": "jÄħcegoĠ",
    "1719": "kan",
    "1720": "Ġdrog",
    "1721": "ka,Ġ",
    "1722": "zat",
    "1723": "Äħdz",
    "1724": "it",
    "1725": "nymĠwÄĻzÅĤemĠ",
    "1726": "âĢĶĠA",
    "1727": "ĠKole",
    "1728": "lamentuĠ",
    "1729": "owaÅ¼",
    "1730": "onychĠ",
    "1731": "rezy",
    "1732": "ĠH",
    "1733": "Minister",
    "1734": "ĠOpis",
    "1735": "kÄĻĠ",
    "1736": "wz",
    "1737": "bog",
    "1738": "Ġwykona",
    "1739": "kontro",
    "1740": "arszaw",
    "1741": "ĠNajbliÅ¼szeĠokoli",
    "1742": "ĠNajbliÅ¼szeĠokoliceĠ",
    "1743": "ktÃ³rzyĠ",
    "1744": "wol",
    "1745": "dziel",
    "1746": "nego",
    "1747": "sok",
    "1748": "nie.",
    "1749": "kobie",
    "1750": "ostat",
    "1751": "46",
    "1752": "ĠInformacjeĠturysty",
    "1753": "rodzin",
    "1754": "Pod",
    "1755": "iĠRadyĠ",
    "1756": "ĠKolejÄħĠ",
    "1757": "Ã³Åº",
    "1758": "Ġdom",
    "1759": "u.",
    "1760": "chodzi",
    "1761": "siÄĻĠw",
    "1762": "czar",
    "1763": "prawi",
    "1764": "jednak",
    "1765": "utor:Ġ",
    "1766": "stat",
    "1767": "uwzglÄĻdniajÄħc",
    "1768": ",ĠwĠszczegÃ³lnoÅĽciĠ",
    "1769": "wegoĠ",
    "1770": "rÄħ",
    "1771": "pierw",
    "1772": "iad",
    "1773": "Å¼ycie",
    "1774": "godzin",
    "1775": "teÅ¼",
    "1776": "dar",
    "1777": "ular",
    "1778": "men",
    "1779": "cent",
    "1780": "sÅĤug",
    "1781": "Ġprzypad",
    "1782": "wszyĠ",
    "1783": "5.",
    "1784": "rÃ³wnieÅ¼Ġ",
    "1785": "otrzym",
    "1786": "ParlamentuĠ",
    "1787": "Kon",
    "1788": "byÅĤyĠ",
    "1789": "naĠp",
    "1790": "ĠwÅĤas",
    "1791": "cje",
    "1792": "ĠZobaczĠteÅ¼",
    "1793": "ĠWyjazdĠ",
    "1794": "Dzie",
    "1795": "owanyĠ",
    "1796": "cki",
    "1797": "kat",
    "1798": "ksiÄĻ",
    "1799": "rodu",
    "1800": "Ġwol",
    "1801": "nim",
    "1802": "konie",
    "1803": "twaĠ",
    "1804": "/2013,Ġ(UE)ĠnrĠ13",
    "1805": "ĠmoÅ¼e",
    "1806": "âĢĶĠT",
    "1807": "Ġsi",
    "1808": "glÄħd",
    "1809": "An",
    "1810": "ĠmoÅ¼naĠ",
    "1811": "12.",
    "1812": "gmin",
    "1813": "ĠwÂł",
    "1814": "aĠwĠ",
    "1815": "szej",
    "1816": ",Ġm",
    "1817": "kach",
    "1818": "bezpiecze",
    "1819": "sĠ",
    "1820": "cjÄĻĠ",
    "1821": "wor",
    "1822": "ÄħcĠ",
    "1823": "skichĠ",
    "1824": "zĠdniaĠ",
    "1825": ".ĠNrĠ",
    "1826": "ÅĤÄħcz",
    "1827": "zÅĤ",
    "1828": "skoĠ",
    "1829": "dop",
    "1830": "ha",
    "1831": "lecz",
    "1832": "ĠmowaĠwĠ",
    "1833": ".ĠWy",
    "1834": "Do",
    "1835": "histor",
    "1836": "nieĠpo",
    "1837": "ĠL",
    "1838": "jeden",
    "1839": ",ĠzĠ",
    "1840": "skaz",
    "1841": "ÅĽwiet",
    "1842": "tele",
    "1843": "50",
    "1844": "ÅĤa,Ġ",
    "1845": "niÄħ",
    "1846": "Pi",
    "1847": "reali",
    "1848": "kÄħĠ",
    "1849": "oÅĤnie",
    "1850": "emi",
    "1851": ".ĠPo",
    "1852": "ros",
    "1853": ",ĠabyĠ",
    "1854": "ĠrokuĠ",
    "1855": "Od",
    "1856": "wozda",
    "1857": "(UE,ĠEuratom",
    "1858": "stop",
    "1859": "arty",
    "1860": "Ġprogra",
    "1861": "publi",
    "1862": "chy",
    "1863": "najm",
    "1864": "dze",
    "1865": "23",
    "1866": "Ġtra",
    "1867": "âĢĿ,Ġ",
    "1868": "ron",
    "1869": "unkow",
    "1870": "ini",
    "1871": "mian",
    "1872": "Poli",
    "1873": "Ġsobie",
    "1874": "szedÅĤ",
    "1875": "kraj",
    "1876": "aty",
    "1877": "wiad",
    "1878": "Ġdale",
    "1879": "szym",
    "1880": "gÅĤow",
    "1881": "bÅĤ",
    "1882": "pos",
    "1883": "adaĠ",
    "1884": ".ĠNaĠ",
    "1885": "eu",
    "1886": "jestĠwaÅ¼",
    "1887": "cÄĻ",
    "1888": "szt",
    "1889": "iĠwy",
    "1890": "czej",
    "1891": "nikÃ³w",
    "1892": "skimĠ",
    "1893": "Rze",
    "1894": "Kra",
    "1895": "nich",
    "1896": "bymĠ",
    "1897": "nieĠu",
    "1898": "Ġli",
    "1899": "czywi",
    "1900": "wen",
    "1901": "naz",
    "1902": "bezĠ",
    "1903": "loka",
    "1904": "âī",
    "1905": "âīĪ",
    "1906": "aÅĤemĠ",
    "1907": "ÅĽcieĠ",
    "1908": "ocz",
    "1909": "Å¼oÅĤnie",
    "1910": "jeĠsiÄĻĠ",
    "1911": "pyta",
    "1912": ".ĠJ",
    "1913": "form",
    "1914": "owaniuĠ",
    "1915": "ktÃ³ryĠ",
    "1916": "Äħcych",
    "1917": "rozm",
    "1918": "jÄħcychĠ",
    "1919": "drogowym",
    "1920": "prawie",
    "1921": "Ġmog",
    "1922": "Warszaw",
    "1923": "zaj",
    "1924": "bieĠ",
    "1925": "ĠmÃ³wi",
    "1926": "uĠnaĠ",
    "1927": "jeszczeĠ",
    "1928": "asz",
    "1929": "ĠmarcaĠ2026",
    "1930": "teÅ¼Ġ",
    "1931": "Ã³jĠ",
    "1932": "kieĠ",
    "1933": "ÅĦstwo",
    "1934": "2013",
    "1935": ":ĠâĢŀ",
    "1936": "nawet",
    "1937": "sto",
    "1938": "stoĠ",
    "1939": "nych,Ġ",
    "1940": "gar",
    "1941": "Ã³gÅĤ",
    "1942": "Ã³ÅĤnoc",
    "1943": "szko",
    "1944": "owane",
    "1945": "stwoĠ",
    "1946": "nieĠzĠ",
    "1947": "prow",
    "1948": "2Ġ",
    "1949": "amin",
    "1950": "Ġdu",
    "1951": "Ġwoj",
    "1952": "wym",
    "1953": "jeÅĽliĠ",
    "1954": "tal",
    "1955": "poÅĽre",
    "1956": "ĠlutegoĠ",
    "1957": "funkcjon",
    "1958": ",ĠboĠ",
    "1959": "zwy",
    "1960": "Nar",
    "1961": "Ġwyraz",
    "1962": "sce",
    "1963": "odpowiedni",
    "1964": "ur.Ġ19",
    "1965": "ĠFestiwale,Ġimpre",
    "1966": "ĠFestiwale,ĠimprezyĠ",
    "1967": "not",
    "1968": "jedy",
    "1969": "ÅĽwiÄĻ",
    "1970": "ÅĦstwa",
    "1971": "Ġdy",
    "1972": "ĠprzedĠ",
    "1973": "dan",
    "1974": "nymĠwÄĻzÅĤemĠdrogowym",
    "1975": "roĠ",
    "1976": "szymĠ",
    "1977": "kamiĠ",
    "1978": "Äħt",
    "1979": "czasĠ",
    "1980": "koch",
    "1981": "oce",
    "1982": "ne,Ġ",
    "1983": "jednakĠ",
    "1984": "rozpo",
    "1985": "stytu",
    "1986": "rzekÅĤ",
    "1987": "szyscyĠ",
    "1988": "Ġsze",
    "1989": "late",
    "1990": "naÅĤ",
    "1991": "Al",
    "1992": "Ġpubli",
    "1993": "Ġzasad",
    "1994": "odci",
    "1995": "bieg",
    "1996": "raze",
    "1997": "ÅĽnie",
    "1998": "ktÃ³rej",
    "1999": "Ġ4",
    "2000": "Ã³ÅĤĠ",
    "2001": "ÄħcyĠ",
    "2002": "Ġzd",
    "2003": "k,Ġ",
    "2004": "iÄĻdzy",
    "2005": "tÄĻ",
    "2006": "dziÄĻ",
    "2007": "cejĠ",
    "2008": "namĠ",
    "2009": "ksztaÅĤ",
    "2010": "(W",
    "2011": ":00",
    "2012": "ĠÅ¹rÃ³dÅĤaĠ",
    "2013": "ub",
    "2014": "uĠw",
    "2015": "czÅĤon",
    "2016": "Â§",
    "2017": "rybu",
    "2018": "np",
    "2019": "rugie",
    "2020": "iĠza",
    "2021": "aÅĤo",
    "2022": "niesie",
    "2023": "Bo",
    "2024": "rÃ³dĠ",
    "2025": "ÅĽciĠ",
    "2026": "chor",
    "2027": "bywa",
    "2028": "obowiÄħz",
    "2029": "informa",
    "2030": "har",
    "2031": "11.",
    "2032": "27",
    "2033": "two",
    "2034": "okres",
    "2035": "Ġr.Ġ",
    "2036": "korzysta",
    "2037": "Agen",
    "2038": "dÅĤug",
    "2039": "gÅĤÃ³w",
    "2040": "sÅĤuÅ¼",
    "2041": "cej",
    "2042": "Ġsp",
    "2043": "gÃ³r",
    "2044": "szar",
    "2045": "nÄħÅĤ",
    "2046": "siÄĻĠdoĠ",
    "2047": "stÄħpi",
    "2048": "Ġpew",
    "2049": ",Ġod",
    "2050": ",Ġpoz.Ġ",
    "2051": "nieĠiĠ",
    "2052": "nichĠ",
    "2053": "kraju",
    "2054": "organiza",
    "2055": "uj",
    "2056": "rzeĠ",
    "2057": "udzie",
    "2058": "zm",
    "2059": "nieĠdoĠ",
    "2060": "rator",
    "2061": "formula",
    "2062": "formula_",
    "2063": "dybyĠ",
    "2064": "Ġzam",
    "2065": "ÄĩĠnaĠ",
    "2066": "ina",
    "2067": ".ĠâĢĶĠ",
    "2068": "lÄĻ",
    "2069": "Ġsw",
    "2070": "3Ġ",
    "2071": "chciaÅĤ",
    "2072": "nosz",
    "2073": "miot",
    "2074": "uzy",
    "2075": ".pl",
    "2076": "chÄĻ",
    "2077": "wiÄĻk",
    "2078": "nigdyĠ",
    "2079": "tom",
    "2080": "nawetĠ",
    "2081": "pracow",
    "2082": "2)",
    "2083": "spoÅĤecz",
    "2084": "prowadzi",
    "2085": "dale",
    "2086": "nieĠza",
    "2087": "wÅĤa",
    "2088": "interes",
    "2089": "ÄĩĠw",
    "2090": "siÄĻĠwĠ",
    "2091": "atuĠ",
    "2092": "/2013,Ġ(UE)ĠnrĠ130",
    "2093": "iemiĠ",
    "2094": "chwiliĠ",
    "2095": "IE",
    "2096": "dzier",
    "2097": "okoÅĤoĠ",
    "2098": "ÄħcychĠ",
    "2099": "ewnÄĻtrz",
    "2100": "36",
    "2101": "Roz",
    "2102": "Za",
    "2103": "skieĠ",
    "2104": "nio",
    "2105": "ĠStat",
    "2106": "siÄĻĠnaĠ",
    "2107": "owoĠ",
    "2108": "owieĠ",
    "2109": "maÅĤy",
    "2110": "onieĠ",
    "2111": "ksiÄħÅ¼",
    "2112": "tk",
    "2113": "tyw",
    "2114": "Å¼eniaĠ",
    "2115": "Å¼yw",
    "2116": "ge",
    "2117": "kul",
    "2118": "70",
    "2119": "/man",
    "2120": "czyÅĤ",
    "2121": ".ĠCh",
    "2122": "Ġzat",
    "2123": "ktoĠ",
    "2124": "Bog",
    "2125": "oÅĽwiad",
    "2126": "UrzÄĻd",
    "2127": "chunkow",
    "2128": "pom",
    "2129": "wiÄħza",
    "2130": "Ġwo",
    "2131": "anieĠ",
    "2132": "schod",
    "2133": "av",
    "2134": "ir",
    "2135": "Bezpiecze",
    "2136": "ajÄħ",
    "2137": "ÄĩĠsiÄĻĠ",
    "2138": "ier",
    "2139": "strukt",
    "2140": "rodzi",
    "2141": "me",
    "2142": "ktÃ³rychĠ",
    "2143": "czasu",
    "2144": "sztu",
    "2145": "legÅĤ",
    "2146": "innychĠ",
    "2147": "moÅ¼naĠ",
    "2148": "ces",
    "2149": "funkcjonari",
    "2150": "prawĠ",
    "2151": "2012",
    "2152": "ĠZobaczĠteÅ¼:Ġ",
    "2153": "Ġsk",
    "2154": "onymĠ",
    "2155": "Ġspraw",
    "2156": "prowad",
    "2157": "arzÄħd",
    "2158": "ium",
    "2159": "yĠw",
    "2160": "ciuĠ",
    "2161": "uchy",
    "2162": "ble",
    "2163": "aĠz",
    "2164": "sol",
    "2165": "szczÄĻ",
    "2166": "Re",
    "2167": "bur",
    "2168": "jekt",
    "2169": "ruchom",
    "2170": "kiegoĠ",
    "2171": "spraw",
    "2172": "ustal",
    "2173": "nieĠmog",
    "2174": ".ĠToĠ",
    "2175": "lud",
    "2176": "dzia",
    "2177": ".ĠPrze",
    "2178": "ÅĤudni",
    "2179": "ujÄħc",
    "2180": "budÅ¼etuĠ",
    "2181": "Ġdost",
    "2182": "em,Ġ",
    "2183": "aĠnaĠ",
    "2184": "ÅĽni",
    "2185": "Äħ.",
    "2186": "Ġod",
    "2187": "ciem",
    "2188": "uwag",
    "2189": "ciÄĻÅ¼",
    "2190": "dniaĠ",
    "2191": "owanych",
    "2192": "Narod",
    "2193": "ktÃ³rychĠmowaĠwĠ",
    "2194": ",Ġs.Âł",
    "2195": "myÅĽl",
    "2196": "cuĠ",
    "2197": "rodze",
    "2198": "ÅĤoÅ¼y",
    "2199": "tychĠ",
    "2200": "Ma",
    "2201": "kacjiĠ",
    "2202": "Trybu",
    "2203": "tkow",
    "2204": "Ry",
    "2205": "rakt",
    "2206": "par",
    "2207": "dziw",
    "2208": "prac",
    "2209": "ory",
    "2210": "int",
    "2211": "34",
    "2212": "i.",
    "2213": "wodnicz",
    "2214": "sobie",
    "2215": ".ĠAleĠ",
    "2216": "waniaĠ",
    "2217": "chi",
    "2218": "11",
    "2219": "Ġgrud",
    "2220": "wozdanieĠ",
    "2221": "hand",
    "2222": "gnie",
    "2223": "wart",
    "2224": "sw",
    "2225": "rom",
    "2226": "granicz",
    "2227": "szyb",
    "2228": "iĠRadyĠ(UE,ĠEuratom",
    "2229": "ĠStatkiemĠ",
    "2230": "Tak",
    "2231": ",Ġprze",
    "2232": "umĠ",
    "2233": "ĠwĠp",
    "2234": "Przy",
    "2235": "naleÅ¼yĠ",
    "2236": "dziaÅĤal",
    "2237": "rozporzÄħdze",
    "2238": "miÄĻ",
    "2239": "dzieÄĩ",
    "2240": "kilkaĠ",
    "2241": "kuratu",
    "2242": "aÅĤĠsiÄĻ",
    "2243": "kiĠiĠ",
    "2244": "Ġprzedstawi",
    "2245": "ucz",
    "2246": "niÅ¼Ġ",
    "2247": ".ĠNa",
    "2248": "obyĠ",
    "2249": "rektor",
    "2250": "dziec",
    "2251": "pÅĤa",
    "2252": "oniĠ",
    "2253": "onej",
    "2254": "szech",
    "2255": "Ra",
    "2256": ".ĠBy",
    "2257": "cier",
    "2258": "Ġtu",
    "2259": "ajÄħc",
    "2260": "nieĠwĠ",
    "2261": "kimĠ",
    "2262": "Äħg",
    "2263": "ÅĽmierciĠ",
    "2264": "Ġpotrze",
    "2265": "eryka",
    "2266": "pier",
    "2267": "czerw",
    "2268": "kaza",
    "2269": "?ĠâĢĶ",
    "2270": "nieĠwi",
    "2271": "kazu",
    "2272": "DoĠ",
    "2273": ",Ġpod",
    "2274": "ska,Ġ",
    "2275": "raÅ¼",
    "2276": "nego,Ġ",
    "2277": "klas",
    "2278": "dzieci",
    "2279": "Ġdod",
    "2280": "nieĠod",
    "2281": "Ġpy",
    "2282": "czyliĠ",
    "2283": ",Ġs.Ġ1",
    "2284": "Kategoria:PolscyĠ",
    "2285": "koj",
    "2286": "brz",
    "2287": "ÅĦskiĠ",
    "2288": "ronyĠ",
    "2289": "Å¼ej",
    "2290": "liz",
    "2291": "niach",
    "2292": "zasad",
    "2293": "Gra",
    "2294": "moÅ¼",
    "2295": "zar",
    "2296": "biera",
    "2297": "leniaĠ",
    "2298": "czaĠ",
    "2299": "Bi",
    "2300": "/2014",
    "2301": ",Ġgdzie",
    "2302": "ÅĤĠsiÄĻĠ",
    "2303": "stĠ",
    "2304": "ografi",
    "2305": "Ġwar",
    "2306": "iÄĻdzynarod",
    "2307": "nauczyciel",
    "2308": "ÅĽrÃ³dĠ",
    "2309": "Ġpracow",
    "2310": "szÄĻ",
    "2311": "ÄĩĠdoĠ",
    "2312": "ludz",
    "2313": "pospo",
    "2314": "aut",
    "2315": "ust.Ġ1",
    "2316": "reg",
    "2317": "Cze",
    "2318": "kachĠ",
    "2319": "pospoli",
    "2320": "Kole",
    "2321": "Obra",
    "2322": "ĠAutor:Ġ",
    "2323": "cy,Ġ",
    "2324": "onÄħ",
    "2325": "ÅĤĠnaĠ",
    "2326": "czyst",
    "2327": "Ant",
    "2328": "cen",
    "2329": "dent",
    "2330": "utobusemĠ",
    "2331": "dod",
    "2332": "tere",
    "2333": "wÃ³j",
    "2334": "ÅĽlaĠ",
    "2335": "Ġwybor",
    "2336": "6.",
    "2337": "laz",
    "2338": "âĢĶĠiĠ",
    "2339": "awia",
    "2340": "naleÅ¼",
    "2341": "strz",
    "2342": "onym",
    "2343": "ÅĤÃ³w",
    "2344": "chce",
    "2345": "szychĠ",
    "2346": "100",
    "2347": "AgencjiĠ",
    "2348": "Ġto",
    "2349": "gÅĤÄĻ",
    "2350": "zyw",
    "2351": "Ġtrze",
    "2352": "Ġpoli",
    "2353": "edÅĤug",
    "2354": "paÅĦstw",
    "2355": "gÃ³",
    "2356": "kniÄĻ",
    "2357": "kichĠ",
    "2358": "nieĠprze",
    "2359": "ryw",
    "2360": "Ġzw",
    "2361": "szkaÅĦ",
    "2362": "poli",
    "2363": "wer",
    "2364": "inter",
    "2365": "bĠ",
    "2366": "ĠzÅĤot",
    "2367": "ĠsposÃ³b",
    "2368": "art.Ġ1",
    "2369": "âĨ",
    "2370": "ĠAutobusemĠ",
    "2371": "Å¼yciaĠ",
    "2372": "Åºdzier",
    "2373": ",Ġp",
    "2374": "nieĠwie",
    "2375": "los",
    "2376": "fer",
    "2377": "ÅĽpie",
    "2378": "czÄĻÅĽciĠ",
    "2379": "=Ġ",
    "2380": "Ġmat",
    "2381": "strasz",
    "2382": "niÄħĠ",
    "2383": "sek",
    "2384": "opera",
    "2385": "upraw",
    "2386": "wejĠ",
    "2387": "szÅĤoĠ",
    "2388": "âĢĶĠNie",
    "2389": "nicĠ",
    "2390": "ĠJ",
    "2391": "rzeÅĽ",
    "2392": "ujÄħ",
    "2393": "jeÅ¼eliĠ",
    "2394": "utrzym",
    "2395": "kÅĤ",
    "2396": "ĠmuĠ",
    "2397": "ĠmaÅĤ",
    "2398": "wali",
    "2399": "ĠoĠ",
    "2400": "kich",
    "2401": "czes",
    "2402": "Te",
    "2403": "ÅĽmiech",
    "2404": "iĠiĠ",
    "2405": ".ĠPoĠ",
    "2406": "czeÅĦ",
    "2407": "miÄĻdzyĠ",
    "2408": "bardziej",
    "2409": "zgod",
    "2410": "raktatuĠ",
    "2411": "zach",
    "2412": "ĠsÄħ",
    "2413": "Ġzmie",
    "2414": "GdyĠ",
    "2415": "pracyĠ",
    "2416": "Ġra",
    "2417": "05",
    "2418": "naĠpodstaw",
    "2419": "aÅĤa",
    "2420": "Ni",
    "2421": "ĠpaÅºdzier",
    "2422": "syj",
    "2423": "zawod",
    "2424": "niez",
    "2425": "osobyĠ",
    "2426": "znajdu",
    "2427": "absol",
    "2428": "cznych",
    "2429": "nog",
    "2430": "takie",
    "2431": "ejmu",
    "2432": "let",
    "2433": "zwo",
    "2434": "oÅĦ",
    "2435": "obli",
    "2436": "9.",
    "2437": "Paw",
    "2438": "âīĪâīĪ",
    "2439": "ĠtuĠ",
    "2440": "Ġtych",
    "2441": "oni",
    "2442": "Ġlip",
    "2443": "no-",
    "2444": "2Âł",
    "2445": "umb",
    "2446": "aktor",
    "2447": "ÄħdÅº",
    "2448": "namiĠ",
    "2449": "naĠz",
    "2450": "unkt",
    "2451": "tam",
    "2452": "ktÃ³rejĠ",
    "2453": "koÅĽci",
    "2454": ",ĠjakoĠ",
    "2455": "35",
    "2456": "regionieĠ",
    "2457": "CoĠ",
    "2458": "kowi",
    "2459": "per",
    "2460": "istnie",
    "2461": "8.",
    "2462": "tua",
    "2463": "Or",
    "2464": "siÄĻĠzĠ",
    "2465": "osi",
    "2466": "grze",
    "2467": "nikÃ³wĠ",
    "2468": "rama",
    "2469": "37",
    "2470": "ker",
    "2471": "tÅĤu",
    "2472": "krÃ³t",
    "2473": ",Ġd",
    "2474": "ĠtakĠ",
    "2475": "owaÅĤaĠ",
    "2476": "Ã³wĠw",
    "2477": "jawi",
    "2478": "ĠgrudniaĠ",
    "2479": "Äĩ.",
    "2480": "obo",
    "2481": "NieĠ",
    "2482": "czym",
    "2483": "prost",
    "2484": "Ġta",
    "2485": "undu",
    "2486": "Ġpodstaw",
    "2487": "gad",
    "2488": "der",
    "2489": "moÅ¼e",
    "2490": "teri",
    "2491": "ust.Ġ",
    "2492": "resz",
    "2493": "jeste",
    "2494": "run",
    "2495": ",ĠaĠtakÅ¼eĠ",
    "2496": "uÅĤ",
    "2497": "istot",
    "2498": "ĠorazĠ",
    "2499": "cznegoĠ",
    "2500": "40",
    "2501": "D)",
    "2502": "owaÅĤĠ",
    "2503": "tamĠ",
    "2504": "naĠd",
    "2505": "iĠp",
    "2506": "EN",
    "2507": "maÅĤy|",
    "2508": "odcinekĠ",
    "2509": ".pl,Ġ",
    "2510": "Ġpowin",
    "2511": "bÄĻdzieĠ",
    "2512": "31",
    "2513": "Ġzakres",
    "2514": "orzyĠ",
    "2515": "fra",
    "2516": "ojciec",
    "2517": "Am",
    "2518": "gaĠ",
    "2519": "kwi",
    "2520": "wil",
    "2521": "doktor",
    "2522": "czych",
    "2523": "na.",
    "2524": "czyni",
    "2525": "nar",
    "2526": "Ġpozost",
    "2527": "nikuĠ",
    "2528": "bezpoÅĽre",
    "2529": "uczest",
    "2530": "ĠOpis:",
    "2531": "id",
    "2532": "teraz",
    "2533": "dzien",
    "2534": "brze",
    "2535": "anegoĠ",
    "2536": "cjÄħ",
    "2537": "obowiÄħzu",
    "2538": "OP",
    "2539": ".ÂłÂłÂł",
    "2540": "ĠÅ¹rÃ³dÅĤo:",
    "2541": "owÄħ",
    "2542": "co",
    "2543": "nieĠmaĠ",
    "2544": "ĠwzglÄĻd",
    "2545": "he",
    "2546": "ĠwrzeÅĽ",
    "2547": "-Ġ",
    "2548": "\",Ġ",
    "2549": ".ĠMo",
    "2550": "czyz",
    "2551": "Ġwysok",
    "2552": "SA",
    "2553": "nosi",
    "2554": "ÄĩĠz",
    "2555": "las",
    "2556": "jednegoĠ",
    "2557": "oĠtym",
    "2558": "wiÄĻksz",
    "2559": "dliw",
    "2560": "innych",
    "2561": "Jani",
    "2562": "onejĠ",
    "2563": "siÅĤ",
    "2564": "leÅ¼yĠ",
    "2565": "miÅĤ",
    "2566": "wĠp",
    "2567": "nicze",
    "2568": "owaw",
    "2569": "administracyj",
    "2570": "wÃ³dz",
    "2571": "tech",
    "2572": "PL",
    "2573": "owo",
    "2574": "lach",
    "2575": "ony",
    "2576": "uryĠ",
    "2577": "szych",
    "2578": "nychĠiĠ",
    "2579": "wybor",
    "2580": "Ġzastos",
    "2581": "system",
    "2582": "ofer",
    "2583": "adwi",
    "2584": "jrz",
    "2585": "Wie",
    "2586": "Ġpat",
    "2587": "ĠpostÄĻp",
    "2588": "Pan",
    "2589": "sza",
    "2590": "sposÃ³b",
    "2591": "21",
    "2592": "owego",
    "2593": "roc",
    "2594": "966",
    "2595": "ÄĩĠwĠ",
    "2596": "szÅĤ",
    "2597": "stronyĠ",
    "2598": "Âłr.Ġ",
    "2599": "transpor",
    "2600": "Uni",
    "2601": "WiÄĻ",
    "2602": "dziedzi",
    "2603": "potrze",
    "2604": "razĠzĠ",
    "2605": "kw",
    "2606": "resie",
    "2607": "Ġznajdu",
    "2608": "3)",
    "2609": "komis",
    "2610": "tĠlotni",
    "2611": "aÅĤem",
    "2612": "rÃ³b",
    "2613": "szÅĤaĠ",
    "2614": "ku,Ġ",
    "2615": "Ã³dĠ",
    "2616": "uwaÅ¼",
    "2617": "gry",
    "2618": "orzy",
    "2619": "usiĠ",
    "2620": "pomoc",
    "2621": "preze",
    "2622": "ujeĠsiÄĻ",
    "2623": "ĠÅ¹rÃ³dÅĤo:ĠodcinekĠ",
    "2624": "bl",
    "2625": "owy",
    "2626": "czaj",
    "2627": "spra",
    "2628": "ĠI",
    "2629": "limat",
    "2630": "ĠmoÅ¼liw",
    "2631": "udziaÅĤ",
    "2632": "Âł000",
    "2633": "966/201",
    "2634": "Wiki",
    "2635": "mÃ³w",
    "2636": "Ġoraz",
    "2637": "Wiel",
    "2638": "rzch",
    "2639": "bak",
    "2640": "ĠmajaĠ",
    "2641": "39",
    "2642": "owanoĠ",
    "2643": "SK",
    "2644": "lop",
    "2645": "np.Ġ",
    "2646": "olotem",
    "2647": "dÅ¼",
    "2648": "lepie",
    "2649": "iadaĠ",
    "2650": "owarzy",
    "2651": "kiejĠ",
    "2652": "tan",
    "2653": "progra",
    "2654": "nor",
    "2655": "ny.",
    "2656": "dziaÅĤaniaĠ",
    "2657": "11.12.",
    "2658": "j,Ġ",
    "2659": "!ĠâĢĶĠ",
    "2660": ".ĠJed",
    "2661": "jÄĻt",
    "2662": "rozwiÄħza",
    "2663": "nam",
    "2664": "10.",
    "2665": "nej.",
    "2666": "ki.",
    "2667": "jewÃ³dz",
    "2668": "Dojazd",
    "2669": "Samolotem",
    "2670": "tr",
    "2671": "aÅĤĠnaĠ",
    "2672": "west",
    "2673": "jÄħĠsiÄĻ",
    "2674": "Ġmy",
    "2675": "sch",
    "2676": "Ġzgod",
    "2677": "anychĠ",
    "2678": "celu",
    "2679": "AM",
    "2680": ".ĠPod",
    "2681": "szczÄĻÅĽ",
    "2682": "jaki",
    "2683": "dal",
    "2684": "siĠ",
    "2685": "Ġpyta",
    "2686": "nek",
    "2687": "cer",
    "2688": "kaÅ¼dyĠ",
    "2689": ",ĠczyĠ",
    "2690": "skar",
    "2691": "c.Ġ",
    "2692": "czypospoli",
    "2693": "Komunika",
    "2694": "goÅĽ",
    "2695": "caÅĤyĠ",
    "2696": "skÄħĠ",
    "2697": "Dzien",
    "2698": "Âłr.ĠNrĠ",
    "2699": "ÄĻ.",
    "2700": "odziĠ",
    "2701": "wymĠ",
    "2702": "Ġdoktor",
    "2703": "ener",
    "2704": "ulamin",
    "2705": "Kontak",
    "2706": "ĠSz",
    "2707": "szkod",
    "2708": "rot",
    "2709": "met",
    "2710": "ĠwykonaniaĠ",
    "2711": "komunika",
    "2712": "Ġpodob",
    "2713": "peÅĤni",
    "2714": "tego,Ġ",
    "2715": "ĠtychĠ",
    "2716": "urlop",
    "2717": "BezpieczeÅĦstwo",
    "2718": "Kontakt",
    "2719": "niÃ³",
    "2720": "jestĠtoĠ",
    "2721": "trzym",
    "2722": "mina",
    "2723": "eli",
    "2724": "8Ġ",
    "2725": "/2020",
    "2726": "nasĠ",
    "2727": "ĠmiÄĻdzyĠ",
    "2728": "zie",
    "2729": "gna",
    "2730": "ujÄħĠ",
    "2731": "absolutor",
    "2732": "absolutorium",
    "2733": "AleĠ",
    "2734": "siebie",
    "2735": "amy",
    "2736": "dzieÅĦ",
    "2737": "opi",
    "2738": "kle",
    "2739": "di",
    "2740": "nadz",
    "2741": "szel",
    "2742": "ÅĽrÃ³d",
    "2743": "ĠwÅĤaÅĽci",
    "2744": "miejsceĠ",
    "2745": "ite",
    "2746": "Gastronom",
    "2747": "cÃ³wĠ",
    "2748": "piÄĻ",
    "2749": "gdzie",
    "2750": "kart",
    "2751": "okrÄĻ",
    "2752": "wskaz",
    "2753": "chunk",
    "2754": "zwiÄħz",
    "2755": "ĠpaÅĦstw",
    "2756": "60",
    "2757": "54",
    "2758": "nych.",
    "2759": "moÅ¼li",
    "2760": "Prezy",
    "2761": "ogÃ³lnegoĠ",
    "2762": "Cy",
    "2763": "Komunikacja",
    "2764": "Gastronomia",
    "2765": "oczyĠ",
    "2766": "âĢ¦Ġ",
    "2767": "Ġprowa",
    "2768": "wÃ³jĠ",
    "2769": "ejm",
    "2770": "wiet",
    "2771": "Ġ417",
    "2772": "NajbliÅ¼szeĠokolice",
    "2773": "Zakup",
    "2774": "Zakupy",
    "2775": "Äĩ,ĠÅ¼eĠ",
    "2776": "emuĠ",
    "2777": "Stra",
    "2778": "Ġpomo",
    "2779": "Âłr.",
    "2780": "Ġmiejscow",
    "2781": "ka.",
    "2782": "Iz",
    "2783": "KolejÄħ",
    "2784": "owanychĠ",
    "2785": "nosiĠ",
    "2786": "Mo",
    "2787": "dziÅĤ",
    "2788": "czejĠ",
    "2789": "dok",
    "2790": "cznyĠ",
    "2791": "),",
    "2792": "/200",
    "2793": ")ĠnrĠ966/201",
    "2794": "ÄĻĠiĠ",
    "2795": "mal",
    "2796": "aĠsiÄĻĠ",
    "2797": "noÅĽciÄħ",
    "2798": "nieĠnaĠ",
    "2799": "lategoĠ",
    "2800": "bowie",
    "2801": "III",
    "2802": "kurator",
    "2803": "lajÄħceĠ",
    "2804": "Kategoria:Polska",
    "2805": "Nauka",
    "2806": "mut",
    "2807": "ryn",
    "2808": "aĠdoĠ",
    "2809": "spe",
    "2810": "jas",
    "2811": "tÃ³w",
    "2812": "nieĠmi",
    "2813": "remĠ",
    "2814": "opis",
    "2815": "czĠ",
    "2816": "qu",
    "2817": "lokal",
    "2818": "Kontro",
    "2819": ",Ġs.Âł1",
    "2820": "Praca",
    "2821": "Ġ+",
    "2822": "ĠtakÅ¼eĠ",
    "2823": "nÄħÅĤĠ",
    "2824": "CzyĠ",
    "2825": "owÄħĠ",
    "2826": "aryĠ",
    "2827": "Ġposta",
[...]
